<unk>	0
<s>	0
</s>	0
.	-3.31454
,	-3.39709
▁the	-3.47428
▁of	-3.4913
▁and	-3.54126
-	-3.95642
▁in	-3.9847
s	-4.31867
▁to	-4.32456
▁(	-4.4908
▁a	-4.63508
)	-4.79039
▁with	-5.03262
▁for	-5.12744
▁	-5.13289
▁that	-5.1723
▁The	-5.2455
▁were	-5.27101
▁by	-5.3027
▁was	-5.31314
▁is	-5.41284
▁as	-5.51864
▁on	-5.54188
▁from	-5.7331
:	-5.84845
ing	-5.85035
▁plant	-5.91913
▁are	-5.95154
/	-6.0606
▁an	-6.07713
2	-6.07859
▁A	-6.08655
▁In	-6.09011
▁be	-6.15553
▁growth	-6.16781
▁this	-6.17133
ed	-6.1976
1	-6.24919
▁study	-6.2689
▁P	-6.28292
▁at	-6.31832
▁which	-6.35288
▁we	-6.39426
),	-6.39431
▁plants	-6.39795
▁or	-6.39931
▁C	-6.41685
▁stress	-6.48477
▁genes	-6.53269
▁acid	-6.55184
e	-6.56452
▁their	-6.56851
▁activity	-6.58371
▁S	-6.59326
d	-6.59829
▁have	-6.60042
▁soil	-6.61831
S	-6.63829
▁showed	-6.66524
a	-6.6655
A	-6.66722
▁species	-6.70149
▁results	-6.71346
▁not	-6.71693
▁also	-6.73482
▁B	-6.74562
▁these	-6.75735
▁We	-6.75898
▁can	-6.76268
▁bacteria	-6.77434
;	-6.77644
).	-6.77654
▁analysis	-6.79048
ly	-6.79546
▁gene	-6.80327
▁expression	-6.80453
▁N	-6.81288
3	-6.8132
▁between	-6.81358
▁This	-6.81679
▁under	-6.8203
▁L	-6.8221
P	-6.82831
▁bacterial	-6.83375
▁different	-6.85378
▁high	-6.85386
▁has	-6.86081
▁production	-6.87902
C	-6.88021
▁potential	-6.88567
T	-6.88912
▁its	-6.8903
▁increased	-6.89698
▁but	-6.89928
p	-6.90267
▁using	-6.9235
▁against	-6.92623
▁been	-6.94089
▁resistance	-6.9437
al	-6.94496
▁than	-6.94906
▁strains	-6.97313
▁effects	-6.97434
▁root	-6.98085
n	-6.9849
▁treatment	-6.9975
▁used	-6.99863
▁two	-7.00124
▁both	-7.01817
▁T	-7.01853
▁cells	-7.02907
▁significantly	-7.04754
▁cell	-7.04924
L	-7.0599
B	-7.06434
▁may	-7.09017
▁M	-7.11009
N	-7.11257
▁levels	-7.11396
▁response	-7.12314
▁H	-7.12738
▁strain	-7.13218
c	-7.13219
i	-7.13967
▁control	-7.14327
▁effect	-7.15476
▁during	-7.15892
▁F	-7.16303
▁conditions	-7.1633
D	-7.16498
g	-7.16916
▁found	-7.17331
R	-7.17896
in	-7.19255
▁role	-7.2001
H	-7.2039
▁more	-7.21791
▁such	-7.2193
▁protein	-7.22256
▁other	-7.22301
▁E	-7.22384
▁development	-7.23931
▁well	-7.25295
▁higher	-7.2571
4	-7.26394
▁water	-7.26421
▁compared	-7.26658
▁identified	-7.26715
▁However	-7.26918
▁non	-7.27271
▁important	-7.27441
▁1	-7.27523
ic	-7.28006
y	-7.28207
▁most	-7.28397
▁could	-7.29029
▁after	-7.29299
▁R	-7.29681
▁associated	-7.30434
o	-7.31012
'	-7.31314
▁into	-7.31672
(	-7.31931
er	-7.33333
▁nitrogen	-7.33843
O	-7.34055
-1	-7.35052
▁p	-7.35059
▁These	-7.35258
▁microbial	-7.35695
▁all	-7.37361
▁including	-7.38604
▁sp	-7.39062
▁disease	-7.3939
▁2	-7.3962
▁it	-7.39769
▁significant	-7.4145
▁compounds	-7.41629
l	-7.42388
b	-7.43393
▁respectively	-7.4348
▁studies	-7.44414
▁revealed	-7.44454
or	-7.46043
▁isolates	-7.46209
▁D	-7.46565
▁observed	-7.46623
m	-7.46713
▁through	-7.47542
▁low	-7.47625
es	-7.48704
▁host	-7.49135
▁patients	-7.49271
▁isolated	-7.49551
▁data	-7.51063
t	-7.51334
r	-7.51401
▁use	-7.51451
M	-7.51634
▁new	-7.52257
us	-7.53186
▁present	-7.53908
▁had	-7.5431
▁three	-7.54629
▁one	-7.54824
▁infection	-7.55512
▁system	-7.55968
ation	-7.56069
▁G	-7.56679
F	-7.56905
▁drought	-7.57096
▁mechanisms	-7.58373
▁increase	-7.58907
▁content	-7.58968
▁involved	-7.6031
E	-7.60355
▁reduced	-7.60593
▁concentration	-7.61735
▁total	-7.62012
▁concentrations	-7.62768
▁3	-7.62849
▁=	-7.6298
▁while	-7.63685
▁model	-7.64009
▁K	-7.64111
▁addition	-7.64372
▁responses	-7.64414
▁proteins	-7.65069
▁time	-7.65304
▁Our	-7.65843
▁factors	-7.66082
5	-7.66822
▁roots	-7.6737
▁Here	-7.67534
V	-7.67754
▁mg	-7.67805
▁tolerance	-7.68329
▁rhizosphere	-7.69443
▁group	-7.69851
▁only	-7.70076
▁changes	-7.70537
▁community	-7.71571
▁activities	-7.72071
▁To	-7.72305
G	-7.72786
▁human	-7.72799
▁molecular	-7.73318
6	-7.73871
▁novel	-7.7443
▁no	-7.75046
▁h	-7.75202
▁related	-7.75283
▁formation	-7.7592
▁fungal	-7.76329
▁our	-7.77293
▁O	-7.77327
▁co	-7.77345
K	-7.77484
▁iron	-7.77727
▁rice	-7.77854
▁signaling	-7.77952
▁when	-7.78446
▁induced	-7.78889
▁level	-7.79657
▁vitro	-7.79963
▁environmental	-7.80424
▁investigated	-7.8068
▁further	-7.81342
▁metabolism	-7.8178
h	-7.81781
▁decreased	-7.82368
f	-7.82748
▁presence	-7.82753
▁first	-7.83587
▁among	-7.84125
▁mechanism	-7.84267
▁accumulation	-7.84584
▁fungi	-7.84748
▁interactions	-7.85764
▁properties	-7.85765
▁metabolites	-7.86119
▁endophytic	-7.8644
▁anti	-7.86569
▁V	-7.86783
induced	-7.86892
▁diversity	-7.87218
▁Pseudomonas	-7.87361
▁re	-7.87546
▁communities	-7.87561
▁based	-7.87697
▁health	-7.89138
▁due	-7.89168
▁suggest	-7.89676
▁Cd	-7.89685
▁g	-7.89713
v	-7.89911
▁application	-7.8993
▁known	-7.9027
▁pathway	-7.90286
um	-7.90487
▁over	-7.90722
▁major	-7.91271
▁ability	-7.92236
▁various	-7.92417
▁enhanced	-7.92526
▁within	-7.92595
an	-7.92847
▁rate	-7.93062
▁16	-7.93666
▁samples	-7.94461
▁function	-7.94565
▁provide	-7.94625
▁4	-7.94734
▁5	-7.95006
▁salt	-7.95574
▁show	-7.95751
▁I	-7.95989
▁leaves	-7.97098
▁number	-7.97333
ion	-7.97826
▁genome	-7.97896
▁organic	-7.97919
based	-7.98697
▁functional	-7.98907
▁s	-7.98965
▁pathogens	-7.99072
▁metal	-7.99306
▁structure	-8.00067
▁via	-8.00072
▁biological	-8.00099
▁antimicrobial	-8.00174
▁biofilm	-8.00223
▁Bacillus	-8.00864
▁some	-8.01227
7	-8.01441
on	-8.01626
I	-8.01952
▁metabolic	-8.02527
▁Arabidopsis	-8.02586
▁leaf	-8.02642
▁lower	-8.02914
▁biosynthesis	-8.0297
▁process	-8.03045
▁up	-8.03389
▁demonstrated	-8.03436
▁type	-8.03605
▁several	-8.03745
▁factor	-8.03893
x	-8.041
▁those	-8.04495
▁ABA	-8.04514
▁exposure	-8.05187
ol	-8.0552
▁effective	-8.05654
▁method	-8.06228
▁groups	-8.06386
▁pathways	-8.06393
▁d	-8.06456
▁specific	-8.06477
ate	-8.07043
▁days	-8.07189
▁antibiotic	-8.07299
▁6	-8.07801
▁As	-8.07885
▁10	-8.08226
▁defense	-8.08622
▁tested	-8.08646
▁uptake	-8.08659
to	-8.08792
▁indicated	-8.09074
▁temperature	-8.09151
▁evaluated	-8.09301
▁review	-8.09334
▁surface	-8.09777
▁carbon	-8.09957
▁produced	-8.10005
▁pathogen	-8.10169
▁findings	-8.10364
ar	-8.10931
related	-8.10984
▁bio	-8.11435
▁soils	-8.11529
▁complex	-8.11623
▁interaction	-8.12015
▁genetic	-8.12321
X	-8.12324
▁composition	-8.12387
▁regulation	-8.12863
▁RESULTS	-8.12946
▁key	-8.13489
▁processes	-8.13992
▁chemical	-8.14021
▁natural	-8.1403
▁field	-8.1419
▁reduction	-8.14193
▁It	-8.14571
▁play	-8.14673
dependent	-8.14705
▁yield	-8.14745
▁IAA	-8.14888
▁clinical	-8.14907
▁research	-8.14959
9	-8.15313
▁[	-8.15431
▁work	-8.15506
▁enzymes	-8.16083
▁DNA	-8.16786
▁Furthermore	-8.17235
re	-8.17321
▁de	-8.17676
▁environment	-8.17721
ity	-8.17833
▁caused	-8.181
▁many	-8.18224
▁physiological	-8.18748
W	-8.18904
8	-8.18989
it	-8.19016
▁four	-8.19089
Y	-8.19259
▁risk	-8.19489
▁Moreover	-8.19795
▁inoculation	-8.1999
MS	-8.20006
▁obtained	-8.20093
▁SA	-8.20209
▁exhibited	-8.20286
▁performed	-8.20449
▁crop	-8.20708
▁secondary	-8.20726
▁impact	-8.21027
▁studied	-8.21066
▁highly	-8.21195
▁microbiota	-8.21223
▁wild	-8.21987
u	-8.22414
▁inhibition	-8.22503
▁reported	-8.22662
▁biomass	-8.22837
▁fixation	-8.23592
▁drug	-8.23613
ine	-8.23622
▁systems	-8.23771
▁colonization	-8.23805
▁abiotic	-8.23872
+	-8.23917
▁detected	-8.24407
▁degradation	-8.24621
▁biocontrol	-8.24641
▁did	-8.25289
▁antioxidant	-8.25459
▁cancer	-8.25513
▁synthesis	-8.25515
▁will	-8.25628
▁sequencing	-8.25888
▁treatments	-8.26041
▁understanding	-8.26499
▁how	-8.26634
▁pH	-8.26659
▁m	-8.26744
▁seed	-8.26941
▁essential	-8.27252
▁mutant	-8.2734
▁characterized	-8.27342
th	-8.27547
is	-8.27684
▁approach	-8.27956
▁Fe	-8.28064
Z	-8.28354
▁7	-8.2859
▁analyses	-8.28702
▁antifungal	-8.28784
▁transcription	-8.28807
▁they	-8.28943
▁+-	-8.29277
▁mice	-8.29289
▁traits	-8.29604
▁sequence	-8.29882
▁culture	-8.29891
▁long	-8.29937
▁enzyme	-8.29938
▁W	-8.30208
▁common	-8.30384
▁multiple	-8.30539
▁auxin	-8.30588
▁un	-8.30661
▁c	-8.31003
▁population	-8.31038
▁each	-8.31095
▁increasing	-8.31349
▁food	-8.31393
▁wheat	-8.3146
▁nutrient	-8.3151
▁years	-8.31728
▁positive	-8.31806
▁range	-8.3221
▁similar	-8.32254
▁beta	-8.32281
▁active	-8.32437
▁treated	-8.33014
▁evidence	-8.33363
U	-8.33394
▁determined	-8.334
▁beneficial	-8.33419
type	-8.33579
▁JA	-8.33599
▁improve	-8.33739
co	-8.33752
▁single	-8.33992
▁differences	-8.34527
▁oxidative	-8.34593
▁agents	-8.34928
▁without	-8.35455
lt	-8.35847
▁immune	-8.35889
1,	-8.35907
▁about	-8.3603
▁relative	-8.3608
▁whereas	-8.36169
▁performance	-8.36368
▁membrane	-8.36416
▁heavy	-8.36704
▁Plant	-8.36896
▁improved	-8.37006
▁abundance	-8.37171
▁efficiency	-8.37229
▁&	-8.37548
▁there	-8.37749
▁8	-8.37826
▁functions	-8.37891
▁highest	-8.37977
▁lead	-8.38164
yl	-8.38197
specific	-8.38237
ur	-8.38291
▁coli	-8.38321
-2	-8.38721
at	-8.38866
▁infections	-8.39064
mediated	-8.39217
▁family	-8.3923
▁promoting	-8.39367
▁acids	-8.39389
▁analyzed	-8.39719
w	-8.39913
il	-8.40007
▁combination	-8.40131
ir	-8.40307
▁test	-8.40558
▁antibiotics	-8.40655
▁f	-8.40777
▁light	-8.41053
"	-8.41218
▁tissue	-8.41451
▁large	-8.41533
associated	-8.42208
▁shown	-8.42699
▁indole	-8.42701
▁tissues	-8.42738
▁roles	-8.42855
▁diseases	-8.43177
able	-8.43207
▁developed	-8.4327
▁investigate	-8.43632
▁An	-8.43912
▁microorganisms	-8.44497
▁expressed	-8.44608
▁oxygen	-8.45446
▁capacity	-8.45477
▁weight	-8.45505
▁Cu	-8.45888
▁influence	-8.45993
▁stresses	-8.46185
▁selected	-8.46219
▁gut	-8.46366
▁change	-8.46555
ent	-8.46623
like	-8.46721
ul	-8.46745
▁quality	-8.46787
SA	-8.46793
promoting	-8.46985
▁vivo	-8.4715
▁affected	-8.47543
▁per	-8.47595
▁report	-8.47676
▁strategies	-8.47808
-3-	-8.47937
▁di	-8.47993
▁suggesting	-8.48095
▁toxicity	-8.48121
▁less	-8.48255
▁activation	-8.4834
▁current	-8.48418
▁seedlings	-8.48598
▁early	-8.48625
▁might	-8.48774
▁At	-8.4913
▁applied	-8.49321
▁out	-8.49492
▁characteristics	-8.49598
▁removal	-8.49652
di	-8.49691
▁RNA	-8.49769
▁All	-8.49846
▁rates	-8.5007
▁parameters	-8.50227
id	-8.50354
▁tomato	-8.50542
▁BACKGROUND	-8.50634
▁"	-8.50806
▁better	-8.50919
▁source	-8.51328
▁values	-8.51436
▁methods	-8.51436
▁phosphate	-8.51519
▁aeruginosa	-8.51638
▁genus	-8.51747
▁virulence	-8.51897
10	-8.51921
▁experiments	-8.51958
▁indicate	-8.5235
▁METHODS	-8.52354
▁main	-8.5239
▁identify	-8.52483
▁pre	-8.52821
▁confirmed	-8.53302
▁assay	-8.53408
▁mass	-8.53997
▁provides	-8.54415
en	-8.54479
▁microbiome	-8.5453
▁micro	-8.54764
50	-8.54837
▁form	-8.54843
resistant	-8.54914
▁U	-8.54989
et	-8.55003
▁spp	-8.55053
▁Results	-8.55171
]	-8.5528
▁20	-8.55307
ive	-8.55323
▁rRNA	-8.55456
▁evaluate	-8.55668
▁t	-8.55848
▁determine	-8.55854
le	-8.55878
ally	-8.55942
▁promising	-8.56112
▁compound	-8.56298
▁small	-8.56368
▁post	-8.56486
▁affect	-8.56644
▁however	-8.56747
▁products	-8.56788
▁target	-8.5679
▁resulted	-8.569
▁antibacterial	-8.56917
▁soybean	-8.57134
k	-8.57229
▁Ca	-8.57289
▁endophytes	-8.57339
▁damage	-8.57492
▁medium	-8.57617
el	-8.57779
▁produce	-8.57815
▁Therefore	-8.5784
▁diverse	-8.57887
▁available	-8.58036
▁12	-8.58296
▁Pb	-8.58581
▁sub	-8.58679
up	-8.58882
▁9	-8.58992
▁metals	-8.59049
J	-8.5928
▁primary	-8.59442
▁15	-8.5952
▁n	-8.59756
▁especially	-8.60117
▁survival	-8.60181
▁resistant	-8.60225
▁binding	-8.60315
▁maize	-8.60325
▁promotion	-8.60379
▁grown	-8.60403
▁conducted	-8.60419
▁across	-8.60449
▁combined	-8.60707
▁same	-8.6074
ii	-8.61006
ated	-8.61035
▁X	-8.61066
▁assessed	-8.61179
▁strategy	-8.61286
▁management	-8.61432
▁information	-8.61566
acetic	-8.61598
▁free	-8.61601
▁reduce	-8.62026
▁symbiotic	-8.62159
▁therapy	-8.62551
▁order	-8.62651
▁poly	-8.62688
ad	-8.62691
▁amino	-8.62786
▁mug	-8.62902
▁Z	-8.62934
▁future	-8.63062
▁inoculated	-8.63337
▁possible	-8.63386
IAA	-8.63403
ac	-8.63593
▁considered	-8.63857
▁germination	-8.63903
0	-8.63905
▁receptor	-8.64022
▁mainly	-8.64031
▁agent	-8.64191
▁required	-8.64275
▁oil	-8.64311
▁CONCLUSIONS	-8.64316
▁able	-8.64461
▁collected	-8.64521
▁inhibited	-8.64596
ous	-8.64841
▁either	-8.649
▁decrease	-8.64975
▁greater	-8.65433
▁negative	-8.6546
▁sites	-8.65581
▁siderophore	-8.6561
▁microbes	-8.65812
▁five	-8.65927
▁For	-8.66136
▁populations	-8.66268
▁ethylene	-8.66331
▁demonstrate	-8.66366
▁cellular	-8.66523
▁where	-8.66569
ase	-8.66571
▁transport	-8.66634
▁distribution	-8.66762
▁extract	-8.66784
st	-8.66809
ro	-8.66968
▁blood	-8.67117
beta	-8.67137
▁energy	-8.6741
▁salinity	-8.67458
one	-8.67671
Q	-8.67714
▁suggested	-8.67764
▁bacterium	-8.67889
▁previously	-8.67904
▁molecules	-8.67925
▁measured	-8.68188
▁mutants	-8.68796
▁patterns	-8.68936
▁thus	-8.68939
ers	-8.69057
▁enhance	-8.69124
▁examined	-8.69546
▁Although	-8.69837
▁fruit	-8.70155
▁following	-8.70803
▁efficacy	-8.70858
▁exposed	-8.71111
▁aureus	-8.71294
▁being	-8.71364
▁size	-8.71532
▁strong	-8.71538
2,	-8.71652
▁liver	-8.71739
▁30	-8.71741
▁agricultural	-8.71837
am	-8.72152
term	-8.72196
se	-8.7233
▁induction	-8.72364
▁shoot	-8.72489
▁Thus	-8.72518
▁containing	-8.7255
▁ratio	-8.72612
▁age	-8.7312
▁promote	-8.73272
▁multi	-8.73621
▁area	-8.74065
▁indicating	-8.74127
12	-8.74473
▁efficient	-8.74474
▁heat	-8.74499
▁Co	-8.74624
▁regulatory	-8.74646
▁alpha	-8.74694
▁them	-8.74735
▁knowledge	-8.74766
▁loss	-8.74845
▁result	-8.74908
▁limited	-8.75019
ch	-8.75047
▁J	-8.75073
▁whether	-8.75097
de	-8.75293
▁should	-8.75545
▁pathogenic	-8.75737
▁release	-8.75953
2-	-8.7606
mL	-8.76135
▁e	-8.76163
▁region	-8.76181
▁lines	-8.76294
ium	-8.76354
ment	-8.76373
alpha	-8.7642
▁models	-8.76711
▁seeds	-8.76801
▁inhibitory	-8.77106
▁identification	-8.77122
▁site	-8.77243
▁applications	-8.77402
characterization	-8.77512
▁<	-8.7761
z	-8.77783
▁global	-8.77791
▁followed	-8.7793
▁contrast	-8.77956
▁components	-8.77968
▁crops	-8.78043
▁signal	-8.78062
▁biotic	-8.78121
▁CO	-8.78484
▁-	-8.78539
▁critical	-8.78558
▁importance	-8.7881
▁aim	-8.78824
ization	-8.79043
▁types	-8.79241
▁fungus	-8.79271
▁action	-8.79311
▁contents	-8.79311
▁recent	-8.7944
▁sequences	-8.79555
ene	-8.79597
▁genera	-8.796
im	-8.7978
▁alternative	-8.798
ne	-8.7989
▁environments	-8.79992
▁lipid	-8.80099
▁period	-8.80417
▁correlated	-8.80461
▁together	-8.80561
▁experiment	-8.80597
▁still	-8.80609
▁assays	-8.80753
15	-8.80819
▁biochemical	-8.80993
▁therapeutic	-8.81143
▁cause	-8.813
▁length	-8.81387
▁nodules	-8.81412
li	-8.81666
▁electron	-8.81717
te	-8.8174
▁b	-8.8184
regulated	-8.81921
un	-8.82262
▁distinct	-8.82378
▁Among	-8.82524
▁dry	-8.82539
ized	-8.8254
▁24	-8.82625
▁very	-8.82806
ant	-8.82841
op	-8.82887
▁Us	-8.83013
▁underlying	-8.83043
▁x	-8.83055
▁transcriptional	-8.83227
▁association	-8.83395
▁+	-8.83464
▁symbiosis	-8.83473
▁variation	-8.83524
▁likely	-8.84098
17	-8.84132
▁life	-8.84178
▁dose	-8.84214
▁isolate	-8.8434
▁siderophores	-8.84553
▁reaction	-8.84574
▁14	-8.84677
▁adaptation	-8.847
▁stage	-8.84724
▁experimental	-8.85036
▁13	-8.85066
▁who	-8.85265
ox	-8.85337
▁help	-8.85361
fold	-8.85395
▁virus	-8.85403
▁rhizobacteria	-8.85525
▁relationship	-8.85609
as	-8.86113
▁Os	-8.86133
▁included	-8.86146
▁phase	-8.86265
▁direct	-8.86393
14	-8.86444
▁along	-8.86568
▁organisms	-8.86684
▁systemic	-8.86723
▁contribute	-8.86729
▁Fusarium	-8.86837
ia	-8.87162
▁China	-8.87445
20	-8.87469
▁Zn	-8.87591
▁metabolite	-8.88054
▁Y	-8.88118
▁stages	-8.88488
▁regions	-8.88493
16	-8.88645
▁value	-8.88728
▁resulting	-8.88788
▁nano	-8.8886
1)	-8.89117
▁toxic	-8.89188
▁detection	-8.89271
11	-8.8942
▁assess	-8.89844
▁extracts	-8.89861
▁NO	-8.89894
▁cross	-8.8993
▁CONCLUSION	-8.90239
▁because	-8.90246
▁children	-8.90351
▁i	-8.90522
2)	-8.90596
▁contaminated	-8.90727
▁IL	-8.91061
▁case	-8.91075
▁'	-8.9108
▁ecological	-8.91099
▁aimed	-8.91143
13	-8.9122
kg	-8.91269
18	-8.91437
▁climate	-8.9144
▁There	-8.91473
▁transgenic	-8.91808
2+	-8.91831
▁fatty	-8.91987
▁remains	-8.92188
▁support	-8.92263
ter	-8.92439
PA	-8.92661
▁chronic	-8.92713
▁pro	-8.9275
▁tumor	-8.92812
ry	-8.92825
1-	-8.92949
-3	-8.93154
▁basis	-8.93232
▁unknown	-8.93572
▁11	-8.93757
ABA	-8.93824
▁six	-8.94044
per	-8.94059
▁thaliana	-8.94226
tic	-8.94229
▁growing	-8.94259
ill	-8.94334
▁proposed	-8.9434
▁sensitivity	-8.95178
▁evolution	-8.95264
▁priming	-8.95267
▁Cr	-8.95291
▁suggests	-8.95496
▁cycle	-8.95516
▁Further	-8.95518
treated	-8.95567
▁even	-8.95602
▁rats	-8.95701
▁condition	-8.95738
tri	-8.95756
▁responsible	-8.95803
▁Re	-8.95998
▁areas	-8.96113
▁profiles	-8.96319
▁salicylic	-8.9653
▁hormone	-8.96737
▁Gram	-8.97182
▁approaches	-8.97209
ri	-8.97359
▁phylogenetic	-8.97398
▁ACC	-8.97443
▁abscisic	-8.97676
▁sources	-8.97696
▁network	-8.97769
▁deaminase	-8.97812
▁cases	-8.97845
▁structures	-8.97852
▁nanoparticles	-8.97854
▁nodule	-8.97913
▁local	-8.97986
▁increases	-8.98135
▁led	-8.98139
▁reducing	-8.98182
▁drugs	-8.98306
II	-8.98333
▁100	-8.98538
▁unique	-8.98551
▁transfer	-8.9866
▁often	-8.98775
▁19	-8.98908
▁protection	-8.99333
▁potentially	-8.9936
▁good	-8.99584
▁so	-8.99761
▁need	-8.9982
ph	-8.99867
▁comparison	-8.99943
▁1-	-8.99987
▁dynamics	-9.00034
▁normal	-9.00047
ating	-9.00276
▁upon	-9.00328
▁cultivars	-9.00437
▁widely	-9.00514
▁tri	-9.00566
▁CD	-9.0064
▁little	-9.00753
▁short	-9.00894
▁induce	-9.00996
os	-9.01085
lo	-9.01182
▁insights	-9.01187
the	-9.01246
▁plays	-9.01257
▁stability	-9.01296
▁biofilms	-9.01383
▁glucose	-9.01416
▁cold	-9.0145
▁susceptibility	-9.01558
▁stem	-9.01672
▁ex	-9.01857
▁day	-9.02268
ma	-9.02319
▁genomic	-9.02405
▁individual	-9.02489
fixing	-9.02518
oc	-9.02553
▁particularly	-9.02593
▁volatile	-9.02737
ta	-9.02806
▁understand	-9.02826
▁liquid	-9.03
▁reactive	-9.03106
me	-9.0314
▁After	-9.03334
▁Additionally	-9.03501
▁elevated	-9.03559
▁con	-9.03783
▁leading	-9.03843
▁any	-9.03914
▁body	-9.04109
▁regulated	-9.04142
▁controls	-9.04178
▁kg	-9.04285
▁rhizobia	-9.04292
▁plasma	-9.0436
▁Based	-9.04515
▁PCR	-9.04594
▁would	-9.04772
▁nitrogenase	-9.04811
▁photosynthetic	-9.04818
▁severe	-9.04839
▁abundant	-9.05152
est	-9.05208
derived	-9.05309
no	-9.05427
▁solution	-9.05549
▁part	-9.05776
▁status	-9.05874
▁index	-9.05951
▁spectrometry	-9.05993
▁develop	-9.06106
▁nodulation	-9.06111
▁healthy	-9.06113
▁presented	-9.06369
▁profile	-9.06429
ut	-9.06435
▁(1	-9.06506
▁18	-9.06558
▁inter	-9.06887
▁chromatography	-9.07128
▁before	-9.07277
▁structural	-9.07516
▁VOCs	-9.07552
▁members	-9.0766
▁encoding	-9.07719
▁useful	-9.079
▁50	-9.07914
▁wide	-9.0821
▁sensing	-9.08224
▁regulate	-9.08314
▁immunity	-9.08324
▁whole	-9.08431
▁selection	-9.08437
min	-9.08474
▁intestinal	-9.08477
▁Two	-9.08496
▁provided	-9.08641
ae	-9.08728
▁established	-9.09125
▁availability	-9.09547
▁ROS	-9.09781
▁strongly	-9.09823
▁antagonistic	-9.09868
▁Streptomyces	-9.09917
▁oxide	-9.09971
▁microscopy	-9.10082
▁native	-9.10236
▁broad	-9.10257
▁productivity	-9.10319
▁variety	-9.10411
3-	-9.10414
▁Staphylococcus	-9.10428
▁r	-9.10483
▁average	-9.10489
▁regulating	-9.10491
▁animals	-9.10494
JA	-9.10637
%	-9.10696
▁maximum	-9.10969
ary	-9.10973
▁differentially	-9.10985
ip	-9.11004
▁correlation	-9.11075
▁GA	-9.11077
▁state	-9.11161
ab	-9.11207
▁yeast	-9.1123
▁wall	-9.11292
▁screening	-9.11413
▁directly	-9.1155
40	-9.11671
▁features	-9.11775
▁25	-9.11818
and	-9.11839
▁described	-9.11863
▁mM	-9.11994
▁Overall	-9.1203
▁l	-9.12046
▁density	-9.12081
▁PGPR	-9.12178
▁nutrients	-9.12199
▁altered	-9.12349
▁carried	-9.12436
▁mediated	-9.12472
▁Al	-9.12485
▁least	-9.12679
▁substrate	-9.12764
▁mortality	-9.12894
▁events	-9.12937
▁design	-9.13065
▁crucial	-9.13112
▁serum	-9.1317
▁pattern	-9.13247
▁>	-9.13329
▁alone	-9.13415
▁agriculture	-9.13501
▁tree	-9.13544
▁Both	-9.13586
SS	-9.13655
ra	-9.13675
▁rapid	-9.1373
▁infected	-9.13752
▁chlorophyll	-9.13755
▁vaccine	-9.13983
▁Escherichia	-9.14001
na	-9.14176
gt	-9.14193
▁particular	-9.14221
▁like	-9.14284
EC	-9.14329
▁diet	-9.14423
methyl	-9.14476
ensis	-9.14687
19	-9.14713
▁death	-9.14764
25	-9.14867
▁animal	-9.15057
▁hydrogen	-9.15061
3,	-9.15168
▁promoter	-9.15217
▁endogenous	-9.15219
▁predicted	-9.15284
rom	-9.15291
▁sensitive	-9.15382
▁amount	-9.15435
▁photo	-9.15594
▁Na	-9.15597
▁Rhizobium	-9.15728
▁controlled	-9.15747
▁On	-9.1582
▁With	-9.15864
▁media	-9.15964
▁gas	-9.16134
▁towards	-9.16218
CO	-9.1628
▁2-	-9.16523
▁difference	-9.16653
▁CYP	-9.16659
▁weeks	-9.16834
▁II	-9.16911
▁CI	-9.17152
▁mean	-9.17168
day	-9.17289
▁displayed	-9.173
▁intracellular	-9.17319
▁worldwide	-9.17323
▁quantitative	-9.17344
▁exogenous	-9.17358
▁inhibit	-9.17404
▁candidate	-9.17467
▁vs	-9.17486
▁competition	-9.1752
▁set	-9.17579
▁cultures	-9.17678
▁promoted	-9.17701
▁dominant	-9.17717
▁then	-9.17827
j	-9.17867
▁improving	-9.18462
negative	-9.18494
▁remain	-9.19067
▁Candida	-9.19068
▁bioactive	-9.19113
▁homeostasis	-9.19189
▁0	-9.19225
▁%	-9.19302
▁potent	-9.1941
▁end	-9.19635
PP	-9.19805
▁transcriptome	-9.1983
▁therefore	-9.19929
▁tests	-9.19943
▁great	-9.20079
4%	-9.2023
▁understood	-9.20253
▁few	-9.2028
▁De	-9.20343
▁stable	-9.20479
la	-9.20493
▁inhibitor	-9.20547
▁derived	-9.20627
▁wastewater	-9.20662
▁Mo	-9.20723
▁AND	-9.2078
▁best	-9.20825
8%	-9.20865
-1-	-9.2088
▁sustainable	-9.21003
ata	-9.21017
▁down	-9.21019
▁patient	-9.21137
▁Bio	-9.2115
age	-9.21189
▁genotypes	-9.21392
▁behavior	-9.21526
▁explore	-9.21652
▁subtilis	-9.21682
CD	-9.21697
▁elements	-9.21756
ang	-9.21794
▁phosphorus	-9.21867
▁w	-9.2205
PR	-9.22102
AP	-9.22109
▁peptide	-9.22112
▁Analysis	-9.22229
▁secretion	-9.22291
▁conserved	-9.22372
mo	-9.22414
▁Trichoderma	-9.22531
cell	-9.22814
▁improvement	-9.22989
▁overall	-9.23039
ial	-9.23067
▁extracellular	-9.23145
▁inflammation	-9.23223
▁initial	-9.23302
amine	-9.23417
ness	-9.23464
▁Bacterial	-9.23671
▁storage	-9.23682
▁months	-9.23713
▁do	-9.23718
ect	-9.23882
▁green	-9.24072
▁relevant	-9.24077
▁contamination	-9.24378
▁exhibit	-9.24382
▁hormones	-9.24389
▁phenotype	-9.24421
▁While	-9.24439
▁oral	-9.24449
▁Finally	-9.24466
▁evaluation	-9.24532
▁times	-9.24593
▁chain	-9.24604
▁legume	-9.2461
▁vaccination	-9.24689
=	-9.24779
▁general	-9.24782
▁synthesized	-9.24862
▁assessment	-9.24889
▁complete	-9.25109
ex	-9.25273
30	-9.25332
▁flow	-9.254
▁prevent	-9.25457
▁v	-9.25493
PCR	-9.25563
CT	-9.25756
▁acute	-9.25888
▁marine	-9.26143
sp	-9.26192
▁regulator	-9.26338
▁(3	-9.26393
▁techniques	-9.2649
ci	-9.26536
time	-9.26604
▁materials	-9.26711
GA	-9.26791
01	-9.26917
▁albicans	-9.27178
▁3-	-9.27189
▁quorum	-9.27203
▁jasmonic	-9.27406
▁developmental	-9.27475
▁real	-9.27581
▁standard	-9.27606
▁recovery	-9.2765
▁transmission	-9.2775
▁inflammatory	-9.27941
7%	-9.27944
▁synthetic	-9.28066
2%	-9.28106
▁taxa	-9.28143
▁mycorrhizal	-9.28173
▁positively	-9.28182
▁if	-9.28227
▁min	-9.28366
▁Ni	-9.28368
▁Se	-9.28387
▁NaCl	-9.28396
▁component	-9.28415
▁photosynthesis	-9.28482
ies	-9.28583
pro	-9.28647
▁shows	-9.28673
▁activated	-9.28928
line	-9.28953
▁derivatives	-9.29025
ap	-9.29079
▁methyl	-9.2919
▁Plants	-9.29352
phytoremediation	-9.29397
▁greenhouse	-9.29618
3)	-9.29677
▁cluster	-9.29779
▁Growth	-9.2978
producing	-9.29982
▁producing	-9.3017
▁causes	-9.30189
▁endophyte	-9.30225
contaminated	-9.30306
▁inhibitors	-9.30387
▁reveal	-9.30426
ability	-9.30447
free	-9.30589
▁0.1	-9.30589
▁unclear	-9.30796
70	-9.30871
▁matter	-9.30885
ell	-9.30976
pi	-9.30994
▁nitrate	-9.31086
▁generation	-9.31135
▁second	-9.31142
▁oxidation	-9.3121
▁insect	-9.31375
▁largely	-9.31417
▁sample	-9.31479
ti	-9.3152
▁fermentation	-9.31529
▁core	-9.31597
▁yet	-9.31618
▁microg	-9.31651
▁st	-9.31728
IP	-9.31791
▁grain	-9.31963
▁central	-9.32077
▁previous	-9.32082
tion	-9.32161
▁absence	-9.32193
ca	-9.32219
▁dependent	-9.32239
▁skin	-9.32306
▁lack	-9.32326
▁putative	-9.32377
▁domain	-9.32499
▁17	-9.32538
▁investigation	-9.32581
Fe	-9.32712
▁susceptible	-9.32734
▁commercial	-9.32817
▁phytohormones	-9.32871
of	-9.32906
▁trans	-9.33008
em	-9.33045
▁line	-9.33257
▁biosynthetic	-9.3326
▁adverse	-9.33262
▁markers	-9.33386
▁Soil	-9.33405
▁pollution	-9.33492
NO	-9.33535
IC	-9.33605
ml	-9.33696
▁By	-9.33889
ig	-9.33906
▁symptoms	-9.33909
▁paper	-9.33928
BP	-9.33986
▁relatively	-9.34176
▁terms	-9.34179
▁Ta	-9.34188
cin	-9.34191
▁cost	-9.34232
▁generated	-9.34239
▁laboratory	-9.34357
▁phenotypic	-9.34398
PS	-9.34642
▁needed	-9.34674
▁act	-9.34857
responsive	-9.34949
▁hosts	-9.35014
▁No	-9.35045
ative	-9.3521
▁detoxification	-9.35304
▁include	-9.3538
▁mono	-9.35423
positive	-9.35435
▁conclusion	-9.35563
▁fish	-9.35568
▁achieved	-9.35572
▁signalling	-9.3573
ling	-9.35761
_	-9.35886
▁seedling	-9.35942
▁High	-9.36055
▁represent	-9.36196
▁although	-9.36232
▁fitness	-9.36295
AS	-9.36464
▁individuals	-9.36464
▁kinase	-9.36478
▁formed	-9.36539
AC	-9.36604
ella	-9.36657
▁stomatal	-9.36733
▁Genome	-9.37091
▁land	-9.37319
▁impacts	-9.37325
▁manner	-9.37339
6%	-9.37388
▁article	-9.37411
▁prevalence	-9.37461
▁become	-9.37463
▁ecosystem	-9.37499
▁(5	-9.37639
▁affects	-9.37669
▁Pro	-9.37727
▁adsorption	-9.37771
▁outcomes	-9.37803
▁additional	-9.37892
ence	-9.38018
▁biochar	-9.38026
▁40	-9.38078
▁according	-9.38081
▁solubilization	-9.38092
vi	-9.38099
▁conventional	-9.38307
▁hyper	-9.38351
be	-9.38379
ec	-9.38413
▁recently	-9.385
4,	-9.38504
▁differentiation	-9.3854
▁ecosystems	-9.3854
▁public	-9.38544
ose	-9.38575
▁much	-9.38614
scale	-9.38671
▁effectively	-9.38878
▁ammonia	-9.38893
▁context	-9.38893
▁lung	-9.38901
▁cultivation	-9.39024
ge	-9.39076
▁k	-9.39127
▁care	-9.3925
RE	-9.39338
24	-9.39403
▁closely	-9.39494
ce	-9.39531
▁cadmium	-9.39554
▁challenge	-9.39721
▁trees	-9.39814
▁mitochondrial	-9.39826
▁dis	-9.39877
▁explored	-9.39906
▁signals	-9.39943
▁Enterobacter	-9.39947
▁seven	-9.40245
▁wound	-9.40301
▁temperatures	-9.4031
-4	-9.40311
ist	-9.40318
CA	-9.4036
tin	-9.40364
▁forest	-9.4038
▁developing	-9.40464
▁targets	-9.40527
living	-9.40561
▁synthase	-9.40569
▁Q	-9.40685
▁PA	-9.40746
ting	-9.40796
▁brain	-9.40817
▁above	-9.40918
▁deficiency	-9.40971
CS	-9.411
ian	-9.41142
▁administration	-9.41225
▁reference	-9.41238
▁acquisition	-9.41296
▁Under	-9.41405
ens	-9.41437
▁negatively	-9.41448
▁screened	-9.41498
▁muM	-9.41556
III	-9.4159
▁genotype	-9.41616
▁intra	-9.41784
▁o	-9.41808
-1)	-9.41875
▁ion	-9.41896
▁UV	-9.41927
▁nature	-9.4195
▁One	-9.41958
▁When	-9.42088
▁regulates	-9.42181
▁product	-9.42227
▁physical	-9.42388
▁clusters	-9.42635
▁commonly	-9.42648
▁poorly	-9.42715
inflammatory	-9.42752
hydroxy	-9.42846
▁genomes	-9.42864
ER	-9.42896
ep	-9.42991
▁morphological	-9.43008
▁95%	-9.43038
▁Ex	-9.43044
▁overexpression	-9.43071
▁exudates	-9.4313
▁interest	-9.43209
▁fresh	-9.43213
▁male	-9.43259
▁subsequent	-9.4327
PE	-9.43498
▁modified	-9.43506
▁here	-9.43618
▁21	-9.43645
▁Aspergillus	-9.43727
9%	-9.43754
rs	-9.43827
▁showing	-9.43855
3%	-9.43856
▁immuno	-9.43941
-5	-9.44132
ray	-9.44165
▁bean	-9.44261
ak	-9.4436
29	-9.44458
▁glutathione	-9.44502
▁upregulated	-9.44577
osis	-9.44619
ha	-9.44747
▁proliferation	-9.44786
▁pressure	-9.44816
▁safety	-9.4494
ide	-9.44978
▁copper	-9.45002
-6	-9.45173
▁controlling	-9.45225
▁peptides	-9.45226
▁occurred	-9.4524
-1,	-9.45255
ot	-9.4531
MA	-9.45495
▁self	-9.45534
▁Salmonella	-9.45536
▁class	-9.45568
old	-9.45665
▁incidence	-9.45737
▁spectroscopy	-9.45771
▁dynamic	-9.45792
60	-9.45816
▁peroxidase	-9.45822
▁air	-9.45899
▁morphology	-9.45906
▁insulin	-9.4592
▁benefits	-9.45924
▁influenced	-9.46105
▁Bradyrhizobium	-9.46239
OR	-9.46252
▁sativa	-9.46276
▁industrial	-9.46301
▁discussed	-9.46308
21	-9.46343
▁enhancing	-9.46405
▁PR	-9.46414
▁mRNA	-9.46473
▁affecting	-9.46609
lic	-9.46677
od	-9.46692
▁solid	-9.46731
om	-9.46791
▁mixed	-9.46794
▁open	-9.46834
ub	-9.46984
▁medicinal	-9.47021
▁material	-9.47179
▁capable	-9.472
▁Delta	-9.4727
▁jasmonate	-9.473
▁QS	-9.47327
▁describe	-9.4741
▁comprehensive	-9.47489
▁enriched	-9.47504
▁tool	-9.47595
ET	-9.47696
▁point	-9.47709
▁differential	-9.47727
AM	-9.47784
IN	-9.47801
▁Sp	-9.47845
ite	-9.47942
▁During	-9.4799
▁tobacco	-9.48013
▁forms	-9.48061
CR	-9.48141
▁phyllosphere	-9.48253
▁shoots	-9.48314
▁saline	-9.48316
▁red	-9.4837
ica	-9.48397
▁consistent	-9.48426
▁protective	-9.48443
SC	-9.48594
▁respiratory	-9.48599
▁evolutionary	-9.48629
▁prepared	-9.48675
all	-9.48679
con	-9.4873
rich	-9.48753
▁60	-9.48754
▁made	-9.48766
▁28	-9.4888
OH	-9.48977
▁biodegradation	-9.49087
LC	-9.49108
450	-9.49125
90	-9.49181
▁optimal	-9.49182
▁regulators	-9.49248
▁utilization	-9.49257
▁Despite	-9.49299
tr	-9.49368
tolerant	-9.49439
▁48	-9.49621
▁fraction	-9.49635
▁technique	-9.49646
▁0.5	-9.49719
▁IC	-9.49818
sis	-9.4983
▁(4	-9.49917
OX	-9.49925
ric	-9.50049
▁humans	-9.50058
▁receptors	-9.50235
▁regarding	-9.50297
-19	-9.5035
ps	-9.50559
▁phenolic	-9.50598
▁belonging	-9.50606
27	-9.50654
▁characterize	-9.50664
▁apoptosis	-9.50728
ome	-9.50972
▁Interestingly	-9.51011
MT	-9.51146
▁transformation	-9.51223
▁Burkholderia	-9.51382
io	-9.51392
▁technology	-9.51438
▁Di	-9.51472
▁consumption	-9.51484
plant	-9.51507
▁thereby	-9.51557
▁necessary	-9.51579
oid	-9.51613
▁attention	-9.51792
▁successfully	-9.51815
bi	-9.51849
▁BNF	-9.51879
ib	-9.51997
▁subjected	-9.52069
AR	-9.52179
▁suitable	-9.52186
▁literature	-9.52329
23	-9.52499
▁Effects	-9.52504
▁Stress	-9.5251
ST	-9.52635
▁eight	-9.52753
PC	-9.52756
ag	-9.52784
eg	-9.52857
▁delivery	-9.52909
▁since	-9.53085
DA	-9.53142
AT	-9.53357
ea	-9.53586
▁focus	-9.53657
iv	-9.53769
Cs	-9.53806
▁world	-9.53809
ud	-9.53809
▁soluble	-9.53864
▁relationships	-9.53872
[	-9.53881
▁0.05)	-9.53914
▁(6	-9.53969
▁MS	-9.5402
IR	-9.54023
▁endo	-9.54084
▁selective	-9.54219
80	-9.54305
CC	-9.54356
1%	-9.54366
▁propose	-9.54371
▁5-	-9.54471
▁Compar	-9.54476
▁toward	-9.54543
▁AM	-9.54636
▁bone	-9.54714
].	-9.54764
▁extraction	-9.54803
▁leads	-9.54838
▁Most	-9.54907
▁zinc	-9.5499
▁hypothesis	-9.55019
▁trials	-9.55068
▁highlight	-9.55121
▁200	-9.55173
▁feeding	-9.55185
▁viral	-9.55225
ten	-9.55316
PD	-9.55346
▁certain	-9.55496
▁potato	-9.55537
▁designed	-9.5555
26	-9.55573
▁injury	-9.5561
itis	-9.55626
▁profiling	-9.55684
▁regard	-9.55693
ance	-9.5582
4-	-9.5598
▁sugar	-9.55995
▁nov	-9.56062
ni	-9.56181
▁nuclear	-9.56207
▁breeding	-9.56288
aceae	-9.56336
▁Gene	-9.56429
5-	-9.56504
fer	-9.56588
▁trial	-9.56591
▁fertilizer	-9.56638
▁insight	-9.56765
▁fluorescence	-9.56791
▁corresponding	-9.56844
▁cultivated	-9.56911
▁Bacteria	-9.56916
▁aquatic	-9.56916
▁linked	-9.57023
▁recorded	-9.57074
▁Ag	-9.57094
▁Si	-9.57144
▁monitoring	-9.57209
▁moderate	-9.57243
ach	-9.5733
▁frequency	-9.57414
▁serve	-9.57435
▁percentage	-9.57446
▁larvae	-9.5748
▁antagonism	-9.57556
▁tolerant	-9.57582
▁received	-9.57702
osa	-9.57849
bio	-9.57946
▁isolation	-9.58011
▁families	-9.58238
▁objective	-9.58255
binding	-9.58265
▁confirm	-9.58323
▁differ	-9.58391
q	-9.58521
38	-9.58641
▁does	-9.58663
▁bi	-9.58773
▁specifically	-9.58938
0%	-9.58941
rin	-9.58991
▁year	-9.59262
▁AMF	-9.59266
▁pathogenesis	-9.59272
▁1,	-9.59662
▁providing	-9.59694
▁residues	-9.59706
▁Acid	-9.59723
uc	-9.59771
▁legumes	-9.59795
▁spatial	-9.59892
ba	-9.59999
▁valuable	-9.60004
ities	-9.60062
▁molecule	-9.60075
▁traditional	-9.60124
ical	-9.60126
▁double	-9.60197
▁ST	-9.60199
▁enrichment	-9.60201
com	-9.60328
▁facilitate	-9.60388
▁adult	-9.60394
▁rot	-9.60402
land	-9.60406
▁tea	-9.60618
▁extent	-9.60703
▁fluid	-9.60721
▁women	-9.60742
▁nifH	-9.60838
▁New	-9.60871
containing	-9.6106
▁independent	-9.61209
▁countries	-9.61214
▁pneumoniae	-9.61269
mi	-9.6128
▁reveals	-9.61282
▁catalase	-9.61368
▁way	-9.61393
▁taxonomic	-9.61467
less	-9.61472
▁phytohormone	-9.61497
▁varieties	-9.61565
▁bioremediation	-9.6157
▁Micro	-9.61632
uch	-9.61666
▁supply	-9.61683
▁series	-9.61728
ob	-9.61823
▁targeting	-9.61835
▁matrix	-9.6184
▁viability	-9.6188
▁testing	-9.6194
▁sodium	-9.62005
▁contribution	-9.62023
VI	-9.62105
▁suppression	-9.62138
▁Endophytic	-9.62196
▁phenotypes	-9.62301
inoculated	-9.62302
▁targeted	-9.62304
▁examine	-9.62356
▁Root	-9.62389
hi	-9.62429
▁milk	-9.62434
▁ions	-9.62481
end	-9.62617
▁aromatic	-9.62685
ty	-9.62688
▁substances	-9.62731
As	-9.62777
Cl	-9.62805
ense	-9.62892
▁calcium	-9.62907
▁resources	-9.62941
▁rapidly	-9.62974
▁aerobic	-9.63131
▁complexes	-9.63131
▁clear	-9.63154
▁associations	-9.63162
RP	-9.63174
pa	-9.63179
▁employed	-9.63254
▁defence	-9.63312
▁respond	-9.6334
▁indicates	-9.63348
▁thermal	-9.6335
pe	-9.63356
▁effectiveness	-9.63501
minocyclopropane	-9.63572
▁currently	-9.63583
28	-9.63598
▁Several	-9.63631
▁proline	-9.63634
tan	-9.63637
ver	-9.63717
▁Effect	-9.6372
▁senescence	-9.63792
wide	-9.63837
▁meta	-9.63844
SP	-9.63877
TA	-9.63888
▁Chinese	-9.63912
▁living	-9.63922
35	-9.63945
ted	-9.63981
▁gain	-9.64034
0.0	-9.6405
▁phyto	-9.64085
▁last	-9.64104
▁reductase	-9.64163
▁GC	-9.64167
tra	-9.64502
▁full	-9.64505
▁Expression	-9.64641
▁acetic	-9.64646
5,	-9.64674
▁dual	-9.6474
▁contained	-9.64782
▁anaerobic	-9.64843
HA	-9.64845
▁diagnosis	-9.64858
▁assembly	-9.64926
year	-9.65027
AB	-9.65111
▁Microbial	-9.65128
▁marker	-9.65143
▁synergistic	-9.65272
▁economic	-9.65316
▁mutations	-9.65455
▁redox	-9.65471
▁diabetes	-9.65476
▁discuss	-9.65479
▁suppressed	-9.65499
▁miR	-9.65529
▁enzymatic	-9.65537
▁Three	-9.65618
▁feed	-9.6563
NPs	-9.65643
▁(9	-9.65736
IL	-9.65757
▁arsenic	-9.65823
▁bulk	-9.65864
▁prior	-9.65915
▁causing	-9.65953
let	-9.65979
▁PGP	-9.66063
▁emission	-9.66154
34	-9.66168
▁adults	-9.66191
▁acquired	-9.66226
▁mutation	-9.66366
NP	-9.66443
he	-9.66466
▁vascular	-9.66499
MP	-9.66535
▁estimated	-9.66535
▁Con	-9.66584
▁contact	-9.66592
▁remediation	-9.6664
▁varied	-9.66647
cc	-9.66662
▁occur	-9.66683
▁dietary	-9.66749
▁NH	-9.6675
RT	-9.6684
▁serious	-9.6691
▁pot	-9.66921
borne	-9.6705
42	-9.67101
▁cotton	-9.67104
DM	-9.67116
▁superoxide	-9.67118
▁transition	-9.67121
▁efflux	-9.67187
▁having	-9.67201
▁exchange	-9.67232
GC	-9.67256
ME	-9.67271
AD	-9.67347
▁fluorescens	-9.67437
▁imaging	-9.67438
mon	-9.67483
▁coupled	-9.67487
▁participants	-9.67495
red	-9.67522
▁Taken	-9.67604
▁ba	-9.6761
▁They	-9.67656
▁balance	-9.67774
▁represents	-9.67865
▁progression	-9.67882
▁generally	-9.67901
▁4-	-9.67933
▁mouse	-9.67982
ho	-9.67985
▁35	-9.68035
-10	-9.68092
▁discovery	-9.6825
▁solani	-9.68286
ign	-9.6835
▁internal	-9.68352
▁Ma	-9.68381
▁numerous	-9.68401
▁transporter	-9.68438
▁fully	-9.68514
▁chitosan	-9.68518
▁doses	-9.68565
ard	-9.68572
33	-9.68579
▁side	-9.68676
▁simple	-9.68697
▁occurrence	-9.68701
MC	-9.68705
▁waste	-9.68712
▁hand	-9.68725
▁rather	-9.68743
regulation	-9.68788
▁date	-9.68951
▁protect	-9.69016
▁surfaces	-9.69024
▁possess	-9.69029
▁majority	-9.69031
▁ha	-9.69075
▁osmotic	-9.69117
▁promotes	-9.69122
OS	-9.69202
▁successful	-9.69222
▁Th	-9.69276
po	-9.69302
amp	-9.69302
▁around	-9.69329
▁(1)	-9.69398
▁absorption	-9.69459
▁scale	-9.69526
▁situ	-9.69694
▁far	-9.69748
▁0.2	-9.69775
sensitive	-9.6983
▁mineral	-9.69857
▁similarity	-9.69911
▁invasive	-9.69954
-8	-9.69989
▁grow	-9.70051
▁Mn	-9.70095
▁amounts	-9.70109
▁incubation	-9.70111
▁poor	-9.7018
▁flooding	-9.70195
lin	-9.70196
oma	-9.70219
ROS	-9.70245
▁step	-9.70287
?	-9.70314
ure	-9.70331
CI	-9.70354
▁Of	-9.70528
▁versus	-9.70529
▁nutritional	-9.70662
▁focused	-9.70721
▁mode	-9.70766
▁rhizobial	-9.70855
throughput	-9.7103
▁problem	-9.71065
▁predict	-9.71088
▁aspects	-9.71149
▁linear	-9.71188
▁mixture	-9.712
▁challenges	-9.71253
▁organs	-9.71294
▁22	-9.71443
▁emerging	-9.71567
▁St	-9.71842
▁induces	-9.71848
FA	-9.71936
▁alterations	-9.71966
▁cultivar	-9.7208
2/	-9.72101
-7	-9.72131
CH	-9.72341
4)	-9.72433
▁requires	-9.72488
▁colonize	-9.72522
▁throughout	-9.72749
▁frequently	-9.72812
tive	-9.72915
au	-9.7299
▁hybrid	-9.73001
▁23	-9.73036
NF	-9.73077
▁adaptive	-9.73197
75	-9.73203
ana	-9.73221
▁maintain	-9.73412
▁establishment	-9.73468
▁inorganic	-9.73505
▁tract	-9.73549
▁severity	-9.73587
▁resource	-9.73604
▁comparative	-9.73608
▁interact	-9.73719
▁oxidase	-9.73727
▁female	-9.73732
▁transporters	-9.73786
▁located	-9.73809
▁elongation	-9.73815
22	-9.73914
03	-9.73944
▁networks	-9.73963
MIC	-9.73971
▁Methods	-9.73996
carboxylate	-9.74032
▁~	-9.74196
▁substrates	-9.74284
▁PD	-9.74359
▁appropriate	-9.74436
▁safe	-9.74511
SI	-9.74513
▁excellent	-9.74522
▁tools	-9.74653
▁fed	-9.7479
va	-9.7483
▁contain	-9.74918
ru	-9.75058
▁transcript	-9.75101
▁spread	-9.75103
36	-9.75192
phosphate	-9.752
▁Gm	-9.75213
▁enhancement	-9.75215
▁zone	-9.75269
PO	-9.75311
▁catalytic	-9.75404
▁Cl	-9.7551
str	-9.7554
39	-9.75554
▁reproductive	-9.75557
▁Resistance	-9.75603
ES	-9.75607
▁flowering	-9.75659
ans	-9.75707
▁spectrum	-9.75763
▁nor	-9.75782
▁degree	-9.75797
her	-9.75911
ile	-9.75956
▁outcome	-9.76008
az	-9.76009
▁sampling	-9.76011
▁specificity	-9.76074
▁al	-9.76089
▁oxysporum	-9.76102
▁kidney	-9.76147
▁remained	-9.76188
▁sludge	-9.76193
▁semi	-9.76314
▁Anti	-9.76315
▁layer	-9.76483
▁measurements	-9.76499
▁protected	-9.76502
▁cinerea	-9.76603
▁minimum	-9.76655
▁origin	-9.76755
ow	-9.76767
DS	-9.76806
ranging	-9.76887
▁neuro	-9.76892
gen	-9.76915
▁involving	-9.76923
▁Proteobacteria	-9.76963
ane	-9.76971
▁find	-9.77021
▁MIC	-9.77103
000	-9.77163
▁search	-9.77182
▁extreme	-9.77226
▁pollutants	-9.77259
CP	-9.77286
les	-9.77328
▁practices	-9.77343
▁Some	-9.7738
-9	-9.77422
▁history	-9.77424
▁LC	-9.77458
▁(7	-9.7763
▁alter	-9.77633
▁proportion	-9.77671
microbe	-9.7773
ification	-9.77769
▁benefit	-9.77807
▁Poly	-9.77828
▁mm	-9.77883
do	-9.77989
▁insects	-9.78096
ize	-9.78235
▁impaired	-9.78308
▁given	-9.78331
▁engineering	-9.78341
cul	-9.78375
form	-9.78662
▁continuous	-9.78744
▁near	-9.78764
▁fruits	-9.78777
▁pest	-9.7881
▁He	-9.78864
ified	-9.78867
▁emissions	-9.78918
▁achieve	-9.78946
▁expected	-9.78952
▁modification	-9.78953
5%	-9.78998
ula	-9.79001
▁industry	-9.79056
▁Molecular	-9.7915
PT	-9.79156
▁reactions	-9.79358
ga	-9.79506
water	-9.79529
▁medical	-9.79546
VOCs	-9.79603
▁processing	-9.79605
BA	-9.79637
▁nm	-9.79697
▁Me	-9.79713
Characterization	-9.79714
▁measures	-9.79765
▁implications	-9.7993
mb	-9.79946
▁rat	-9.80005
▁parts	-9.80081
ACC	-9.80102
ong	-9.80143
37	-9.80165
▁0.3	-9.80247
53	-9.80271
▁involvement	-9.80289
NA	-9.80314
▁ch	-9.80317
▁confer	-9.80333
DNA	-9.80372
mer	-9.80471
▁accumulated	-9.80471
▁Strain	-9.80532
▁Pre	-9.80563
▁daily	-9.80567
▁limit	-9.80655
▁primarily	-9.80662
ism	-9.80662
▁intake	-9.80668
▁ca	-9.80772
▁distributed	-9.8081
▁enhances	-9.80819
&	-9.80867
▁gamma	-9.80919
▁volume	-9.81008
▁ammonium	-9.81169
▁downstream	-9.81237
▁sediment	-9.81238
espite	-9.81297
▁mechanical	-9.81312
▁establish	-9.81376
▁iso	-9.81378
▁trait	-9.81385
▁analyze	-9.81387
▁inoculant	-9.81424
▁cytotoxicity	-9.81451
▁modulation	-9.81474
▁dismutase	-9.81618
phi	-9.81762
▁(2)	-9.81877
cr	-9.81894
▁transduction	-9.81907
▁corn	-9.82015
SD	-9.82024
▁Recent	-9.82089
▁physiology	-9.82106
45	-9.82179
▁account	-9.82284
pre	-9.82339
▁larger	-9.82369
▁intervention	-9.82384
chemical	-9.82399
▁muscle	-9.82439
SM	-9.82495
▁nucleotide	-9.82546
▁prevention	-9.82548
▁cm	-9.82581
▁Klebsiella	-9.82633
▁modulate	-9.82635
ors	-9.82638
▁mostly	-9.82643
▁nine	-9.82659
PI	-9.82705
RS	-9.82725
1/	-9.82844
BC	-9.82914
▁nematode	-9.82996
▁integrated	-9.83011
CF	-9.83056
▁gel	-9.83063
▁eradication	-9.8312
▁NPs	-9.83228
▁Treatment	-9.83319
▁released	-9.83321
ins	-9.83372
▁auto	-9.83421
▁duration	-9.83511
▁indica	-9.83604
▁transcriptomic	-9.83623
▁Potential	-9.83659
▁detect	-9.83696
▁approximately	-9.83707
der	-9.83727
02	-9.8383
▁numbers	-9.83844
RA	-9.83896
▁PM	-9.84106
▁Lactobacillus	-9.84117
▁conversion	-9.84158
▁lateral	-9.8418
▁mL	-9.84314
ates	-9.8435
▁defined	-9.844
ology	-9.84402
over	-9.84408
▁fertilization	-9.84463
(-1)	-9.84554
44	-9.84621
▁organ	-9.84641
▁completely	-9.84648
▁multidrug	-9.8475
chi	-9.84769
▁compare	-9.84807
▁transcripts	-9.84808
▁collection	-9.84813
▁means	-9.84814
▁identity	-9.84842
bo	-9.84849
ina	-9.84852
ogenic	-9.84896
▁shift	-9.8497
▁contributes	-9.84984
▁sex	-9.84986
▁pepper	-9.85041
▁hospital	-9.85041
▁Ar	-9.85072
▁stimulated	-9.85074
▁motility	-9.85091
▁analysed	-9.85124
▁plasmid	-9.85166
▁particles	-9.85167
▁reports	-9.85171
▁symbionts	-9.85204
▁extracted	-9.85205
▁scanning	-9.85241
▁Many	-9.85325
▁innate	-9.8545
▁stimulate	-9.85454
▁26	-9.85459
▁(8	-9.85483
▁wilt	-9.8554
RI	-9.85592
transferase	-9.85613
activated	-9.8563
▁supported	-9.85805
▁viruses	-9.85814
▁late	-9.8589
▁Disease	-9.8589
▁cucumber	-9.8589
▁deep	-9.85926
LP	-9.85929
▁apple	-9.85975
▁changed	-9.86085
▁OF	-9.86171
▁typical	-9.86181
▁Drought	-9.86192
▁Nitrogen	-9.86258
▁variations	-9.86351
▁supplementation	-9.86376
▁fields	-9.865
▁CH	-9.86536
TR	-9.86586
▁South	-9.86589
ort	-9.86595
▁acetate	-9.866
TP	-9.86601
ick	-9.86602
47	-9.86614
▁deposition	-9.86619
▁fungistatic	-9.86713
-2-	-9.86847
AF	-9.86858
▁1.0	-9.87233
yr	-9.87289
▁DC	-9.87338
▁constructed	-9.87361
▁subjects	-9.87372
▁added	-9.87374
▁cl	-9.87429
OC	-9.87519
infected	-9.87616
eri	-9.8763
gamma	-9.87644
6)	-9.8766
▁extensive	-9.87703
▁allowed	-9.87709
▁syringae	-9.87712
▁syndrome	-9.87713
oli	-9.87729
▁losses	-9.87736
48	-9.87748
growth	-9.87775
▁medicine	-9.87797
NS	-9.87799
▁utilized	-9.87802
▁la	-9.87814
▁richness	-9.87824
▁injection	-9.87835
▁cohort	-9.87866
▁cytochrome	-9.87918
▁Identification	-9.88019
▁50%	-9.88066
pt	-9.8808
▁SAR	-9.8811
▁past	-9.88183
▁Actinobacteria	-9.88276
▁inhibiting	-9.88288
▁peroxide	-9.88339
▁NF	-9.88363
▁sulfate	-9.88482
▁address	-9.88559
▁Antimicrobial	-9.88587
▁rDNA	-9.88597
▁allow	-9.88608
tal	-9.88631
▁height	-9.88648
05	-9.88728
▁treat	-9.88829
▁macrophages	-9.8888
▁atmospheric	-9.88946
);	-9.88965
si	-9.88994
▁emergence	-9.89028
deficient	-9.89037
▁generate	-9.89095
▁make	-9.89117
▁breast	-9.89155
▁concern	-9.89311
▁units	-9.8941
▁cultured	-9.89422
amino	-9.89502
▁biology	-9.8954
ack	-9.89541
▁deletion	-9.89546
▁29	-9.89697
▁purified	-9.89725
▁widespread	-9.89725
▁mature	-9.89729
carboxylic	-9.89768
▁season	-9.89854
gu	-9.89869
▁variable	-9.89893
level	-9.89949
proteobacteria	-9.90014
pr	-9.90059
▁grass	-9.90075
▁protease	-9.90094
▁partially	-9.90147
▁us	-9.90151
▁0.05).	-9.90156
idine	-9.90185
▁elucidate	-9.90193
PGPR	-9.90251
▁agar	-9.9036
▁explain	-9.90441
▁robust	-9.905
▁half	-9.9051
▁decline	-9.90546
BR	-9.90553
ole	-9.90572
▁Herein	-9.90627
▁live	-9.90654
▁rare	-9.90667
genic	-9.90682
▁Paenibacillus	-9.90691
▁classified	-9.90729
▁CP	-9.90753
▁decreasing	-9.90773
6,	-9.90786
▁inoculants	-9.90855
▁turn	-9.90874
▁tropical	-9.90935
▁disorders	-9.90963
▁white	-9.9097
▁occurs	-9.90978
▁CA	-9.91081
▁WT	-9.9116
▁maintained	-9.91173
▁failure	-9.91197
▁almost	-9.91198
▁polymer	-9.91378
▁baseline	-9.91467
▁contains	-9.91479
ions	-9.91501
▁intensity	-9.91515
▁urban	-9.91559
▁close	-9.91627
▁competitive	-9.91664
▁sequenced	-9.91664
▁yields	-9.91684
▁invasion	-9.91726
DH	-9.91864
▁attack	-9.91885
▁HIV	-9.91896
1),	-9.91932
IM	-9.91975
▁purpose	-9.91978
▁element	-9.92126
WRKY	-9.92213
aria	-9.9222
57	-9.9225
seq	-9.92287
▁partial	-9.92384
▁ethanol	-9.92412
▁aqueous	-9.92419
▁attributed	-9.92433
▁recovered	-9.92603
▁fertilizers	-9.92703
Ca	-9.92739
▁validated	-9.9274
▁progress	-9.92744
▁determination	-9.92956
▁biomarkers	-9.92972
▁COVID	-9.92986
▁strength	-9.9306
ethylene	-9.93115
▁hepatic	-9.93214
▁fast	-9.93214
▁contributed	-9.93241
▁III	-9.93319
▁variability	-9.93334
toxic	-9.93365
ke	-9.93371
▁Le	-9.93444
BS	-9.93463
▁Inter	-9.93464
▁expansion	-9.93604
▁stimulation	-9.93616
▁electro	-9.93672
▁BR	-9.93734
▁(10	-9.93799
▁32	-9.93806
6-	-9.93813
ero	-9.9405
▁bo	-9.94094
▁substantial	-9.94178
▁respect	-9.94183
▁recombinant	-9.94202
▁below	-9.94266
ili	-9.94289
sh	-9.94351
ve	-9.94405
▁barrier	-9.94412
onic	-9.94425
▁conclude	-9.94449
MB	-9.94455
▁ER	-9.94488
▁Sl	-9.94519
▁irrigation	-9.9453
AL	-9.94552
▁organism	-9.94554
▁carbohydrate	-9.94578
▁systematic	-9.94588
DE	-9.94603
▁vulgaris	-9.94639
▁starch	-9.94643
▁shape	-9.94723
▁framework	-9.94749
▁untreated	-9.94816
▁lowest	-9.94834
▁namely	-9.94979
▁Cell	-9.94989
▁flood	-9.95023
▁diagnostic	-9.95023
▁access	-9.9503
▁adhesion	-9.95133
▁2,	-9.95149
▁rich	-9.95235
log	-9.95244
▁example	-9.95246
▁diazotrophs	-9.95267
EP	-9.95279
act	-9.95317
▁Health	-9.9534
▁radiation	-9.95409
av	-9.95446
GS	-9.95472
▁nutrition	-9.95512
▁flavonoids	-9.9552
out	-9.95585
▁secreted	-9.95622
▁possibly	-9.9563
amide	-9.95633
HR	-9.95643
▁classes	-9.95669
▁pesticides	-9.95689
▁li	-9.95693
CM	-9.95729
▁proved	-9.95781
qu	-9.95874
ari	-9.95903
▁vital	-9.95959
ular	-9.9596
5)	-9.9602
CL	-9.96026
▁Pi	-9.96033
8%)	-9.96054
▁phage	-9.96083
idae	-9.96108
▁communication	-9.96184
if	-9.96315
▁follow	-9.96324
▁highlights	-9.96339
tor	-9.96343
▁Genes	-9.96366
▁CF	-9.96393
▁regression	-9.96407
▁colonized	-9.96456
▁space	-9.96484
protein	-9.96514
▁social	-9.9652
▁architecture	-9.96539
da	-9.9654
off	-9.96556
▁Phylogenetic	-9.96574
man	-9.96604
▁potassium	-9.9663
BL	-9.96701
-20	-9.9672
▁depend	-9.96739
▁phosphorylation	-9.96755
▁Different	-9.96785
▁combinations	-9.9684
▁candidates	-9.96917
▁efforts	-9.96927
▁2017	-9.9697
▁threat	-9.9705
val	-9.971
▁simultaneously	-9.97101
ible	-9.97141
ton	-9.97148
▁PBB	-9.97213
▁ranged	-9.97221
▁observations	-9.97253
vis	-9.97344
▁ripening	-9.97359
▁modulating	-9.97415
▁inducing	-9.97467
▁habitats	-9.97472
▁recognized	-9.97472
68	-9.97524
▁0.8	-9.97588
bu	-9.97604
▁clearly	-9.97629
▁cyanobacteria	-9.97637
▁foliar	-9.9764
ai	-9.97662
SE	-9.9769
▁oryzae	-9.97753
ory	-9.97757
▁stems	-9.97758
AA	-9.97783
▁protocol	-9.97791
99	-9.97865
▁AR	-9.979
▁detailed	-9.97901
▁para	-9.97907
▁efficiently	-9.97911
▁ratios	-9.97955
▁macro	-9.97966
son	-9.9798
▁diazotrophic	-9.97986
▁crude	-9.98036
bacteria	-9.981
▁platform	-9.98149
▁Since	-9.9815
▁solutions	-9.98191
▁ten	-9.98246
gi	-9.98259
izing	-9.98275
bactin	-9.9828
▁AP	-9.98303
▁precursor	-9.98306
▁fractions	-9.9831
▁significance	-9.9832
▁cycling	-9.98324
▁occurring	-9.98358
▁rhizospheric	-9.98376
32	-9.98444
▁demonstrates	-9.98478
▁dehydrogenase	-9.9849
res	-9.98547
▁NMR	-9.98636
▁fine	-9.98637
IA	-9.98693
▁young	-9.9871
▁indigenous	-9.98718
▁reduces	-9.98754
iaceae	-9.98794
▁2018	-9.98806
go	-9.98817
▁evolved	-9.98866
78	-9.98897
▁infectious	-9.98919
▁ATP	-9.98919
gr	-9.98931
ts	-9.98946
▁greatly	-9.98963
(2)	-9.9898
▁45	-9.98983
GR	-9.99009
Cd	-9.99035
▁Non	-9.99048
▁fluorescent	-9.99233
▁probably	-9.99233
▁dominated	-9.99297
▁maintaining	-9.99318
▁exert	-9.99327
▁habitat	-9.99405
ethyl	-9.99432
▁sea	-9.99461
▁epithelial	-9.99523
▁CS	-9.99548
▁pi	-9.99618
▁Functional	-9.99676
ID	-9.99697
emia	-9.99819
▁ml	-9.99825
nic	-9.99828
▁Comparative	-9.99879
SO	-9.99937
▁except	-9.99977
▁crystal	-10
▁minimal	-10.0004
▁translocation	-10.0016
oides	-10.0017
▁risks	-10.003
tur	-10.003
▁AD	-10.0034
GE	-10.0047
▁adapt	-10.0056
▁inhibits	-10.0057
▁introduced	-10.0065
▁difficult	-10.0066
▁Also	-10.0069
▁another	-10.0077
▁superior	-10.0079
▁MC	-10.008
sa	-10.0081
▁recognition	-10.0082
culture	-10.0086
phy	-10.0087
7)	-10.0092
NT	-10.0104
▁0.4	-10.0109
▁VOC	-10.0113
▁overcome	-10.0114
▁cytotoxic	-10.0123
▁Application	-10.0126
▁basal	-10.0128
▁sulfur	-10.0132
▁fat	-10.0134
▁longer	-10.0139
▁Mi	-10.014
▁alleviate	-10.0148
▁polymerase	-10.0158
▁newly	-10.0173
▁technologies	-10.0188
▁90	-10.0192
▁pea	-10.02
▁OBJECTIVE	-10.0201
▁HA	-10.0202
▁success	-10.0205
ug	-10.0207
▁phyla	-10.0209
▁Ac	-10.0217
▁WRKY	-10.0219
DC	-10.0223
cur	-10.0226
▁Its	-10.0227
▁divided	-10.0232
▁pv	-10.0237
sia	-10.0242
▁later	-10.0244
▁must	-10.0246
▁barley	-10.0256
▁Hence	-10.0259
▁people	-10.0261
▁niche	-10.0266
▁predominant	-10.0268
+-	-10.0274
▁microbiomes	-10.0277
ok	-10.0278
forming	-10.0307
▁eco	-10.0311
▁localization	-10.0311
▁pseudo	-10.0318
Cu	-10.0319
▁mycelia	-10.0321
▁Activity	-10.0321
▁aims	-10.0323
67	-10.0326
▁considerable	-10.0328
▁practice	-10.0332
▁autophagy	-10.0333
hal	-10.0334
▁var	-10.0341
▁Patients	-10.0343
0%)	-10.0344
▁CR	-10.0355
▁inside	-10.0355
▁variables	-10.0359
by	-10.0364
ron	-10.0365
▁Pa	-10.0366
8)	-10.0366
▁maintenance	-10.0369
▁log	-10.0374
mp	-10.0377
▁Iron	-10.0384
▁Background	-10.0387
ov	-10.039
myloliquefaciens	-10.0393
▁Development	-10.0393
41	-10.0395
▁sc	-10.0396
QS	-10.0397
HD	-10.0397
▁sucrose	-10.0408
▁recommended	-10.0409
▁Ch	-10.0411
▁Study	-10.0417
▁phosphatase	-10.0418
▁probiotic	-10.0418
▁elucidated	-10.0419
par	-10.042
▁depending	-10.0424
▁hydro	-10.0426
▁demand	-10.0433
98	-10.0434
▁attributes	-10.0438
▁allows	-10.0445
▁summarize	-10.0451
▁kinetics	-10.0459
▁basic	-10.046
▁peak	-10.046
▁toxin	-10.046
▁72	-10.0463
09	-10.0466
▁DM	-10.0467
▁influences	-10.0467
▁external	-10.0477
▁epi	-10.0479
RF	-10.0481
▁gram	-10.0483
ind	-10.0491
thr	-10.0492
ost	-10.0498
▁obtain	-10.0501
▁Acinetobacter	-10.0501
▁elimination	-10.0502
ace	-10.0503
▁en	-10.0504
▁27	-10.0506
▁calculated	-10.0511
▁Hg	-10.0512
4%)	-10.0525
▁36	-10.0525
▁super	-10.0532
cit	-10.0536
for	-10.0537
▁consortium	-10.0538
▁microM	-10.0544
TH	-10.0546
▁representative	-10.0548
▁temporal	-10.0553
▁hydrocarbons	-10.0561
▁quantified	-10.0562
▁sugarcane	-10.0562
port	-10.0565
independent	-10.0567
▁river	-10.0568
7,	-10.0578
mat	-10.0579
▁published	-10.0581
▁dysfunction	-10.0581
▁goal	-10.0583
ulin	-10.059
31	-10.0593
▁accompanied	-10.0599
96	-10.0603
▁le	-10.0604
▁arbuscular	-10.0606
▁differed	-10.0607
65	-10.0608
ple	-10.0613
3+	-10.0614
▁trace	-10.0636
▁bp	-10.064
NAC	-10.064
▁PbB	-10.0652
▁2019	-10.0653
▁naturally	-10.0657
▁appeared	-10.0659
▁Water	-10.0661
▁syn	-10.0671
▁display	-10.0675
lar	-10.0691
▁now	-10.0692
▁view	-10.0694
ERF	-10.0696
▁limiting	-10.07
▁composite	-10.07
▁PI	-10.0701
▁peri	-10.0705
art	-10.0708
▁Response	-10.0708
OP	-10.0709
▁diameter	-10.071
▁decades	-10.0712
▁PC	-10.0713
▁renal	-10.0723
▁magnetic	-10.0723
▁urine	-10.0723
▁sh	-10.0725
▁stronger	-10.0729
▁appears	-10.0731
▁affinity	-10.0735
▁memory	-10.0741
▁randomized	-10.0748
9%)	-10.075
▁membranes	-10.0754
phenyl	-10.0755
control	-10.0758
▁final	-10.0761
▁administered	-10.0766
58	-10.0767
▁Role	-10.0768
77	-10.0779
3%)	-10.0781
ung	-10.0783
▁37	-10.0784
▁Col	-10.0787
dis	-10.0789
▁lipids	-10.079
ries	-10.0791
▁chromosome	-10.0797
▁pharmacological	-10.0797
▁suppress	-10.0807
ax	-10.0809
IV	-10.0809
▁position	-10.081
▁pain	-10.0811
▁RT	-10.0814
▁measure	-10.0815
▁taken	-10.0816
press	-10.0819
▁nematodes	-10.0823
▁Besides	-10.0835
5%)	-10.0836
ish	-10.0836
▁100%	-10.0836
▁PB	-10.0838
▁points	-10.0839
inoculation	-10.084
br	-10.084
lus	-10.0844
ix	-10.0848
2),	-10.0848
▁activate	-10.0852
89	-10.0852
HC	-10.0857
▁gradient	-10.0857
nt	-10.0862
▁relation	-10.0862
▁grapevine	-10.0866
mod	-10.0867
▁cr	-10.0868
treatment	-10.0869
88	-10.0876
mic	-10.0881
▁glycol	-10.0901
▁Medicago	-10.0907
▁shared	-10.0919
ations	-10.0922
▁RA	-10.093
hu	-10.0935
▁avoid	-10.0942
▁hours	-10.0949
mass	-10.0951
▁coastal	-10.0959
use	-10.0959
▁influenza	-10.0964
▁annual	-10.0964
▁bioavailability	-10.0968
obacter	-10.0973
▁33	-10.0979
▁silver	-10.098
▁sediments	-10.0984
▁Ba	-10.0985
▁select	-10.0986
ran	-10.0991
atum	-10.0993
▁degrade	-10.0999
▁More	-10.1002
▁formulation	-10.1003
fl	-10.1012
▁consequences	-10.1013
▁migration	-10.1017
▁Sub	-10.1026
▁sufficient	-10.1027
▁changing	-10.1031
▁power	-10.1036
▁SL	-10.104
▁antiviral	-10.1046
▁hetero	-10.1047
cl	-10.1047
▁programs	-10.1053
▁alcohol	-10.1055
▁heart	-10.1064
▁capability	-10.1064
ze	-10.1065
▁ET	-10.1066
ring	-10.1068
▁malaria	-10.1069
▁vegetative	-10.107
lan	-10.1071
▁terrestrial	-10.1072
IT	-10.1074
▁urinary	-10.1076
▁count	-10.1079
ner	-10.1081
▁Control	-10.1081
▁vitamin	-10.1083
▁microbe	-10.1093
coding	-10.1094
79	-10.1101
▁Un	-10.1107
cal	-10.111
▁chemicals	-10.1111
▁diffusion	-10.1115
▁ligand	-10.1129
▁involves	-10.1131
HP	-10.1131
▁scavenging	-10.1138
▁mol	-10.1139
▁black	-10.1147
▁limitation	-10.1148
car	-10.1155
▁ng	-10.1159
▁chemo	-10.1172
▁prediction	-10.1183
lu	-10.1188
9)	-10.119
▁vector	-10.1191
▁varying	-10.1193
▁advanced	-10.1196
nal	-10.1197
▁depth	-10.1197
▁antigen	-10.12
▁car	-10.1201
▁methylation	-10.1206
▁antibody	-10.1207
▁acts	-10.1213
degrading	-10.1219
▁score	-10.122
▁polar	-10.122
OM	-10.1226
▁healing	-10.1227
▁Data	-10.1227
▁Brassica	-10.1228
MV	-10.123
▁comparable	-10.1232
▁thermo	-10.1235
▁hypo	-10.1236
▁visual	-10.1237
▁malondialdehyde	-10.1239
▁possibility	-10.1239
IF	-10.124
▁Li	-10.1243
▁Per	-10.1245
▁broth	-10.1245
▁Genetic	-10.1247
▁survey	-10.125
▁baumannii	-10.1252
▁truncatula	-10.1252
▁advances	-10.1255
ani	-10.1262
FP	-10.1263
ull	-10.1273
▁Streptococcus	-10.1278
▁responsive	-10.1279
▁require	-10.1288
▁pylori	-10.1298
ld	-10.1298
▁constant	-10.13
▁gall	-10.1303
▁EC	-10.1311
46	-10.1316
▁initiation	-10.1318
zo	-10.1328
▁triggered	-10.1347
▁precipitation	-10.1347
▁Human	-10.1351
2.5	-10.1351
▁existing	-10.1363
▁domains	-10.1369
LS	-10.1375
▁India	-10.1377
▁Firmicutes	-10.1377
72	-10.1383
cus	-10.1386
oxy	-10.1391
aw	-10.1396
CE	-10.1401
▁0.6	-10.1401
▁limits	-10.1401
▁winter	-10.1404
▁myco	-10.1406
▁problems	-10.1413
▁intermediate	-10.1422
▁obesity	-10.143
▁fecal	-10.143
glyc	-10.1436
▁HM	-10.1436
PV	-10.1437
▁member	-10.1439
▁CFU	-10.1445
▁hydrocarbon	-10.1445
ants	-10.1453
▁sugars	-10.1453
cer	-10.1454
▁optimized	-10.1457
SOD	-10.146
▁Nano	-10.1462
64	-10.1465
▁quantification	-10.147
low	-10.1471
▁variants	-10.1472
PM	-10.1473
▁ecology	-10.1477
95	-10.1478
▁characteristic	-10.1479
▁alfalfa	-10.1479
▁1.5	-10.1481
ological	-10.1482
▁Novel	-10.1484
▁therapies	-10.1484
▁subsequently	-10.1486
▁pulmonary	-10.1486
▁effector	-10.1492
▁pathogenicity	-10.1495
▁locations	-10.1495
▁he	-10.1496
▁fundamental	-10.1497
▁markedly	-10.1504
▁screen	-10.1508
gastrointestinal	-10.1519
pyr	-10.1525
TM	-10.1534
▁(3)	-10.1539
▁0.9	-10.1547
UC	-10.1553
▁includes	-10.1555
▁preparation	-10.1561
HS	-10.1561
▁peanut	-10.1564
▁downregulated	-10.1572
▁encoded	-10.1574
VA	-10.1574
▁cytokines	-10.1588
▁females	-10.1589
▁flower	-10.1591
▁lacking	-10.1597
▁Ph	-10.1597
▁radio	-10.1611
▁composed	-10.1612
▁silico	-10.1618
▁reached	-10.162
▁anticancer	-10.162
▁abilities	-10.1623
▁colony	-10.1624
▁ppm	-10.1625
cho	-10.1626
▁FA	-10.1627
▁miRNAs	-10.163
▁called	-10.1631
▁polluted	-10.1634
▁program	-10.1634
▁nif	-10.1635
▁persistence	-10.1639
spectrum	-10.1642
PB	-10.1646
▁alkaline	-10.1655
▁accumulate	-10.1657
ED	-10.1658
▁cv	-10.1661
▁algae	-10.1664
▁Biological	-10.1667
▁feature	-10.1668
▁moisture	-10.1673
▁statistically	-10.1675
▁im	-10.1677
▁hypothesized	-10.1678
▁deficit	-10.1679
▁contributing	-10.168
▁mediate	-10.1682
▁cereus	-10.1687
▁(95%	-10.169
▁decreases	-10.1693
▁GST	-10.1705
▁net	-10.1706
und	-10.1706
▁radical	-10.171
▁Bo	-10.1714
TB	-10.1716
▁symbiont	-10.1717
▁31	-10.1728
▁CT	-10.1729
che	-10.173
▁seen	-10.1733
▁seasonal	-10.1736
49	-10.1738
IMPORTANCE	-10.1741
▁laser	-10.1742
▁produces	-10.1745
▁cycles	-10.1748
▁vaccines	-10.1748
▁discovered	-10.175
▁replication	-10.1756
rr	-10.1765
MD	-10.1766
▁determining	-10.1769
▁str	-10.1771
▁MeJA	-10.1774
EN	-10.1775
▁mining	-10.1778
▁CC	-10.1783
atus	-10.1784
▁increasingly	-10.1786
▁finding	-10.179
▁repair	-10.1791
vo	-10.1793
▁tetra	-10.1796
▁offer	-10.1802
acetyl	-10.1803
▁y	-10.1805
▁cytokinin	-10.181
▁Car	-10.1812
cha	-10.1821
▁upregulation	-10.1823
▁Conclusion	-10.1823
▁powder	-10.1824
06	-10.183
▁phosphatidyl	-10.1835
▁artificial	-10.1841
▁grape	-10.1845
SR	-10.1854
spor	-10.1858
▁extended	-10.1861
oxo	-10.1862
▁wood	-10.187
▁supplemented	-10.1873
▁80	-10.1873
▁MA	-10.1874
▁subsp	-10.1874
▁old	-10.1878
MI	-10.1878
▁(20	-10.1882
DR	-10.1885
▁respiration	-10.1887
▁burden	-10.1887
▁lesions	-10.1894
▁interventions	-10.1896
▁regeneration	-10.1897
07	-10.19
HT	-10.19
▁array	-10.1901
▁staining	-10.1903
▁color	-10.1909
▁Due	-10.191
▁unit	-10.1914
▁perception	-10.1915
▁Protein	-10.1916
▁slightly	-10.1919
8,	-10.1922
▁Ab	-10.1927
biotechnological	-10.1929
▁70	-10.1929
▁blight	-10.193
▁DFO	-10.1935
▁monitored	-10.1943
▁quantify	-10.195
▁tryptophan	-10.195
▁practical	-10.1957
▁fiber	-10.1962
▁meliloti	-10.1964
▁course	-10.1969
resistance	-10.1969
▁usually	-10.1972
▁go	-10.1975
▁exhibits	-10.1975
▁trend	-10.198
mm	-10.1981
▁Four	-10.1986
▁EPS	-10.1989
▁attenuated	-10.1996
TC	-10.1997
▁0.7	-10.2
ct	-10.2003
▁localized	-10.201
▁Evaluation	-10.2014
▁plus	-10.2015
▁depends	-10.2017
-1.	-10.2024
▁gl	-10.2026
▁making	-10.2027
poly	-10.2028
HB	-10.203
)]	-10.2033
71	-10.2037
▁highlighted	-10.2038
▁blue	-10.2041
opolysaccharide	-10.2041
▁reverse	-10.2043
▁SM	-10.2052
59	-10.2055
▁enter	-10.2056
▁System	-10.2063
▁aged	-10.2063
▁bind	-10.2066
DF	-10.2067
▁next	-10.207
▁concluded	-10.2073
▁abundances	-10.2077
cept	-10.2078
▁dissolved	-10.2078
▁reserved	-10.208
morph	-10.2083
▁fibrosis	-10.2084
▁TNF	-10.2093
▁distance	-10.2095
▁behaviour	-10.2107
▁modifications	-10.2107
Delta	-10.2112
▁manure	-10.2113
▁La	-10.212
▁slow	-10.2124
▁named	-10.213
▁database	-10.2132
▁chloroplast	-10.2134
NH	-10.214
▁Inoculation	-10.2141
so	-10.2143
▁environmentally	-10.2144
ie	-10.2146
▁threshold	-10.2148
▁latter	-10.2149
▁viable	-10.2151
omer	-10.2151
▁nucleus	-10.2153
▁Is	-10.2154
▁plastic	-10.2157
ori	-10.2159
▁lu	-10.216
IS	-10.2161
▁Model	-10.2163
▁Po	-10.2166
SF	-10.217
▁6-	-10.2173
▁indirect	-10.2173
▁dehydration	-10.2177
coming	-10.2183
hydro	-10.2189
▁retention	-10.2191
▁expressing	-10.2192
▁parallel	-10.2198
▁pests	-10.2201
ised	-10.2204
▁melatonin	-10.2206
▁surgery	-10.2209
97	-10.2211
▁HS	-10.2212
oph	-10.2215
▁hormonal	-10.2227
non	-10.2227
▁enable	-10.2229
▁Seed	-10.223
▁representing	-10.223
▁flu	-10.2231
▁prevalent	-10.2237
43	-10.2237
▁chloride	-10.2237
▁periods	-10.2237
mg	-10.2241
til	-10.2243
▁filter	-10.2247
▁rights	-10.2248
▁aphid	-10.2248
genome	-10.2251
▁Rice	-10.2256
qui	-10.2256
olytic	-10.226
▁0.01	-10.2261
ber	-10.2267
ger	-10.2272
▁ter	-10.228
cre	-10.2282
▁investigations	-10.2284
85	-10.2288
▁hair	-10.2289
MYB	-10.2292
▁minor	-10.2293
▁PS	-10.2306
▁explained	-10.2306
ture	-10.2309
xi	-10.2315
▁fertility	-10.2316
▁extensively	-10.2323
04	-10.2326
active	-10.2327
▁integrity	-10.2329
GO	-10.2337
▁br	-10.2337
▁persistent	-10.2338
valent	-10.2338
ern	-10.2342
ino	-10.2343
▁fold	-10.2346
▁assigned	-10.2351
▁determinants	-10.2355
▁pure	-10.2362
era	-10.2363
▁nitric	-10.2365
hy	-10.2379
Al	-10.2379
GT	-10.2381
▁resolution	-10.2385
SH	-10.2386
eno	-10.2387
▁undergo	-10.2389
col	-10.2393
OA	-10.2394
lum	-10.2394
▁Africa	-10.2398
▁reflect	-10.2404
▁others	-10.2406
▁assimilation	-10.2409
▁mild	-10.2409
76	-10.241
▁modeling	-10.2416
carb	-10.2416
▁loci	-10.2418
In	-10.2424
▁block	-10.2426
▁survive	-10.2426
▁Clinical	-10.2431
▁indices	-10.2432
▁issue	-10.2435
bacter	-10.2437
phase	-10.2437
▁DEGs	-10.2438
▁fungicidal	-10.244
BD	-10.2442
TS	-10.2445
▁me	-10.2447
▁peroxidation	-10.2447
cap	-10.2451
▁face	-10.2457
54	-10.2458
▁emerged	-10.2458
▁prolonged	-10.2459
▁sand	-10.246
▁onto	-10.2466
0)	-10.2482
▁Collectively	-10.2483
▁ATCC	-10.2485
▁costs	-10.2485
CoV	-10.2485
▁belonged	-10.2487
▁degraded	-10.2492
▁driven	-10.2497
▁Multi	-10.2497
NC	-10.2498
▁suspension	-10.2502
cis	-10.2503
▁permeability	-10.2505
▁shock	-10.2506
▁Chemical	-10.2513
▁sensor	-10.2521
▁acidic	-10.2524
▁implicated	-10.2525
▁mechanistic	-10.2528
▁comparing	-10.2528
▁Vibrio	-10.2528
▁fix	-10.2532
▁encodes	-10.2534
56	-10.2534
▁inoculum	-10.2543
4+	-10.2545
pathogen	-10.2546
▁2016	-10.2547
▁steps	-10.255
▁Through	-10.255
▁Understanding	-10.2558
00	-10.256
idin	-10.256
▁se	-10.2561
▁proteomic	-10.2562
-12	-10.2562
▁citrus	-10.2567
▁MDA	-10.2568
▁chitinase	-10.2571
▁endothelial	-10.2575
▁BC	-10.2578
LA	-10.258
▁IV	-10.2585
▁ultra	-10.2587
pat	-10.2589
▁PP	-10.2593
DD	-10.2594
▁phenomenon	-10.2595
▁mitigate	-10.2596
66	-10.2599
LD	-10.26
▁flavus	-10.2602
RNA	-10.2604
▁million	-10.2607
▁Illumina	-10.261
ef	-10.2615
▁tuberculosis	-10.262
▁coverage	-10.2626
▁Group	-10.263
▁special	-10.263
ff	-10.2631
US	-10.2633
▁background	-10.264
▁phospho	-10.264
PL	-10.2645
74	-10.2646
55	-10.2651
▁designated	-10.2653
▁cyclo	-10.2658
▁Penicillium	-10.2662
LE	-10.2664
▁particle	-10.2668
▁copyright	-10.267
▁neutral	-10.2678
▁antibodies	-10.2678
▁surveillance	-10.2685
▁vegetation	-10.2688
▁largest	-10.2689
▁event	-10.2691
▁clinically	-10.2696
▁cis	-10.2699
▁ring	-10.2705
dimensional	-10.2712
loid	-10.2714
▁improves	-10.2716
ess	-10.2719
▁LPS	-10.2726
▁summer	-10.2727
▁Low	-10.2734
ual	-10.2736
▁gr	-10.2738
▁contaminants	-10.274
▁2.5	-10.2741
08	-10.2743
ert	-10.2745
73	-10.2746
▁1.1	-10.2747
▁po	-10.2748
▁:	-10.275
▁interesting	-10.2759
▁appear	-10.276
▁chitin	-10.2764
PH	-10.2771
kin	-10.2771
▁theoretical	-10.2776
▁napus	-10.2776
bacterial	-10.2777
CK	-10.2783
▁Azospirillum	-10.2784
▁cardiovascular	-10.2784
▁epiphytic	-10.2784
pl	-10.2788
▁concept	-10.2789
▁challenging	-10.2807
▁River	-10.2807
stress	-10.2822
▁frequent	-10.2824
▁entire	-10.2838
▁chemistry	-10.2841
ward	-10.2841
ice	-10.2845
▁HPLC	-10.2846
▁Mg	-10.2851
▁ubiquitous	-10.2853
▁oils	-10.2857
▁En	-10.2858
▁chickpea	-10.286
Associated	-10.2868
▁warming	-10.2871
▁Rhizosphere	-10.2872
▁Over	-10.2882
GF	-10.2885
ery	-10.2887
▁NP	-10.2891
▁PEG	-10.2893
▁yeasts	-10.2902
▁preventing	-10.2903
9,	-10.2909
fi	-10.2914
but	-10.2919
▁utilize	-10.2924
▁500	-10.2924
▁Compounds	-10.2925
▁Unit	-10.293
▁lifestyle	-10.293
▁opportunistic	-10.293
▁bound	-10.2931
▁nod	-10.2935
▁separation	-10.2938
▁though	-10.2939
▁genetically	-10.2939
▁men	-10.2942
▁lo	-10.2942
▁ambient	-10.2945
rp	-10.2946
▁flavonoid	-10.2953
@	-10.2953
▁apply	-10.2954
▁GR	-10.2955
▁forming	-10.2957
▁excess	-10.2959
▁simulated	-10.2961
▁Pantoea	-10.2969
chloro	-10.297
AN	-10.2971
▁adapted	-10.2972
▁place	-10.2974
▁physicochemical	-10.2977
su	-10.2977
tus	-10.2991
can	-10.2991
my	-10.2994
7%)	-10.3012
▁42	-10.3014
▁workers	-10.3015
▁link	-10.3016
▁Recently	-10.3018
▁hypoxia	-10.3023
▁complications	-10.3026
▁methane	-10.3027
▁surrounding	-10.3028
▁man	-10.303
-2,	-10.3031
▁IR	-10.3035
▁rhizo	-10.3036
LR	-10.3038
▁Antibiotic	-10.304
▁simultaneous	-10.3051
▁scientific	-10.307
▁employ	-10.3074
TE	-10.3085
▁column	-10.3086
▁Sa	-10.3087
94	-10.3096
▁Botrytis	-10.3097
▁Be	-10.3099
▁colon	-10.31
▁parasitic	-10.3101
gal	-10.3101
▁cognitive	-10.3102
gene	-10.3108
▁experience	-10.3112
▁base	-10.3112
100	-10.3114
▁disruption	-10.3123
root	-10.3124
▁harmful	-10.3133
▁lineages	-10.3134
▁onset	-10.3135
ka	-10.3148
▁substantially	-10.3149
▁diabetic	-10.315
pen	-10.3151
▁fixed	-10.3155
FR	-10.3156
▁Isolation	-10.3157
▁coding	-10.3158
toxicity	-10.3165
▁ethyl	-10.3166
▁treating	-10.3169
▁intrinsic	-10.3173
▁maternal	-10.3173
▁AC	-10.3174
▁comp	-10.3187
*	-10.3189
▁operon	-10.3189
▁Gl	-10.3194
▁third	-10.3199
▁disorder	-10.32
dy	-10.32
▁cal	-10.3202
▁Meanwhile	-10.3205
PGP	-10.3206
rm	-10.3206
▁mine	-10.321
▁Fungal	-10.3213
▁pharmaceutical	-10.3215
▁com	-10.3221
51	-10.3221
rol	-10.3223
▁antioxidants	-10.3223
▁1.2	-10.3228
▁advantage	-10.323
▁rise	-10.3231
▁Changes	-10.3233
lat	-10.3234
▁sampled	-10.3234
▁functioning	-10.3235
▁commensal	-10.3237
▁BA	-10.3238
▁si	-10.3244
▁defenses	-10.3245
▁needs	-10.3245
ator	-10.3246
duct	-10.3249
▁accuracy	-10.3252
▁Zm	-10.3253
azine	-10.3254
▁2015	-10.3255
▁remarkable	-10.326
▁putida	-10.3261
▁elevation	-10.3269
▁reproduction	-10.327
pos	-10.3271
▁IFN	-10.3272
▁ensure	-10.3273
▁DE	-10.3274
▁allowing	-10.3279
▁cannot	-10.3282
EM	-10.3282
▁my	-10.3282
chain	-10.3284
▁epigenetic	-10.3285
▁tr	-10.3287
▁promoters	-10.3291
▁delayed	-10.3293
▁perspective	-10.3305
▁supporting	-10.3306
▁conservation	-10.3309
6%)	-10.331
▁coral	-10.3311
▁transform	-10.3314
▁antagonist	-10.3314
atin	-10.3316
▁bactericidal	-10.3317
▁summary	-10.3317
▁parasite	-10.3325
▁every	-10.3327
▁phytopathogens	-10.3327
▁compost	-10.3328
▁formulations	-10.333
▁dormancy	-10.3331
▁biodiversity	-10.3334
▁GO	-10.3337
our	-10.3341
micro	-10.3342
ust	-10.3363
▁Together	-10.3365
▁10-	-10.337
high	-10.3372
▁males	-10.3375
MDA	-10.3376
▁So	-10.3379
▁estimate	-10.3385
▁correlations	-10.3386
tro	-10.339
▁flowers	-10.3391
▁cellulose	-10.3391
▁residue	-10.3392
▁interference	-10.3398
side	-10.3404
▁et	-10.3405
▁Ha	-10.3406
▁seems	-10.3411
▁identifying	-10.3412
box	-10.3412
▁agro	-10.3416
▁silencing	-10.3417
▁Impact	-10.3422
▁prospective	-10.3422
▁Fungi	-10.3425
pathogenic	-10.3427
▁trigger	-10.3428
▁Serratia	-10.343
▁feedback	-10.343
▁transient	-10.3435
ler	-10.3436
tis	-10.3439
meth	-10.344
▁belong	-10.3446
▁cover	-10.3452
▁CK	-10.3457
▁According	-10.346
phenol	-10.346
▁SP	-10.3462
▁Cs	-10.3462
nia	-10.3464
8-	-10.3468
<	-10.3473
▁Gh	-10.348
part	-10.3486
kappaB	-10.349
2%)	-10.3496
▁movement	-10.3497
▁European	-10.3498
Ms	-10.3501
▁jasmonates	-10.3501
▁supplement	-10.3502
▁Sea	-10.3503
▁cardiac	-10.3512
▁CB	-10.3518
▁project	-10.352
▁limitations	-10.3524
▁forests	-10.3527
▁spring	-10.3528
AI	-10.3532
▁done	-10.3534
until	-10.3534
ional	-10.3537
▁MRSA	-10.3538
▁lignin	-10.3545
▁38	-10.3546
▁delta	-10.3546
OD	-10.355
▁Mt	-10.3552
terminal	-10.3553
gra	-10.3553
▁division	-10.3554
▁Tri	-10.3557
EF	-10.3558
friendly	-10.356
▁interface	-10.3561
▁litter	-10.3562
tu	-10.3562
ark	-10.3566
fen	-10.3586
▁algal	-10.3589
▁extra	-10.359
▁North	-10.3595
▁irradiation	-10.3608
AG	-10.3621
▁consist	-10.3622
▁Previous	-10.3624
▁criteria	-10.3627
▁vegetables	-10.3629
▁su	-10.363
▁Studies	-10.3636
▁disc	-10.3636
CB	-10.3641
▁Alternaria	-10.3644
▁Production	-10.3644
ther	-10.365
▁examination	-10.3652
tetra	-10.3659
▁Species	-10.3661
▁paddy	-10.3661
CN	-10.3662
▁planta	-10.3663
▁plan	-10.3668
84	-10.3674
▁TC	-10.3677
▁dark	-10.368
▁surgical	-10.3687
Ile	-10.3694
▁herb	-10.37
▁procedure	-10.3704
cle	-10.3709
▁SC	-10.3715
▁Because	-10.3719
▁weak	-10.3723
EO	-10.3725
-0.	-10.3726
▁TR	-10.3728
▁give	-10.3739
▁states	-10.3742
ocytes	-10.3744
▁week	-10.3752
▁location	-10.3761
▁mammalian	-10.3761
sil	-10.3762
▁closure	-10.3769
▁load	-10.377
▁10%	-10.377
▁outer	-10.377
▁endosphere	-10.377
▁classification	-10.3771
▁SOD	-10.3771
▁cap	-10.3774
RD	-10.3775
▁max	-10.378
▁ocean	-10.3784
▁volatiles	-10.3789
▁statistical	-10.3792
RR	-10.3793
▁metabolomics	-10.3797
AO	-10.3798
87	-10.3801
▁proteome	-10.3801
af	-10.3806
species	-10.3808
PF	-10.3811
▁MT	-10.3811
▁silage	-10.3815
▁producers	-10.3816
▁olive	-10.382
▁150	-10.3821
ris	-10.3823
▁independently	-10.3829
▁interval	-10.3834
PEG	-10.3836
▁maturation	-10.3837
▁degrees	-10.3838
AMP	-10.3838
ales	-10.3842
▁indicators	-10.3846
▁remove	-10.3849
▁fact	-10.385
▁0.01)	-10.3852
ju	-10.3855
▁engineered	-10.3859
▁benzo	-10.386
owing	-10.3867
nes	-10.3876
▁reliable	-10.388
▁subunit	-10.3883
▁pretreatment	-10.3891
1%)	-10.3893
du	-10.3893
▁petroleum	-10.3897
▁prominent	-10.3897
▁represented	-10.3897
▁34	-10.39
▁Agrobacterium	-10.3905
▁modulates	-10.3907
▁sal	-10.3913
▁xylem	-10.3914
▁etc	-10.3915
cy	-10.393
▁magnitude	-10.3931
hen	-10.3934
▁consisting	-10.3935
▁TA	-10.3939
▁placebo	-10.394
cop	-10.3944
▁stimuli	-10.3948
▁pyr	-10.3949
▁plasticity	-10.3951
ue	-10.3955
▁Ad	-10.3956
▁Sequence	-10.3956
▁HR	-10.3956
ept	-10.3957
assisted	-10.3958
WT	-10.396
▁greatest	-10.396
rot	-10.3963
▁evident	-10.3965
▁boost	-10.3966
▁clade	-10.397
▁perform	-10.3971
Zn	-10.3971
▁Pe	-10.3975
anti	-10.3981
92	-10.3981
▁demonstrating	-10.3982
▁ste	-10.3984
▁ascorbate	-10.3987
▁murine	-10.3992
▁TB	-10.3992
▁flux	-10.3999
▁inactivation	-10.4003
ogen	-10.4007
▁median	-10.4014
ND	-10.4015
▁lip	-10.4021
▁head	-10.4024
HI	-10.403
▁removed	-10.403
▁amplicon	-10.4034
BNF	-10.4041
thio	-10.4041
▁shifts	-10.4047
▁overview	-10.4052
▁restricted	-10.4052
path	-10.4054
▁introduction	-10.406
-15	-10.4062
came	-10.4062
▁3,	-10.4063
▁settings	-10.4072
og	-10.4081
▁disrupt	-10.4084
▁conductance	-10.4086
▁pr	-10.4086
▁chi	-10.4088
ear	-10.4095
▁implementation	-10.4096
▁loading	-10.4098
▁presents	-10.4101
▁electronic	-10.4106
MR	-10.411
▁proton	-10.412
▁necrosis	-10.4121
▁acyl	-10.4123
▁smaller	-10.4127
▁depletion	-10.413
▁SIGNIFICANCE	-10.4134
▁observation	-10.4136
▁Qu	-10.4137
▁STUDY	-10.4138
▁insertion	-10.4138
▁isotope	-10.4144
ifolia	-10.4148
▁Similarly	-10.4154
▁cascade	-10.4156
sul	-10.4163
▁fumigatus	-10.4165
▁zones	-10.4167
han	-10.4169
den	-10.4176
▁guidelines	-10.4181
generation	-10.4188
▁behaviors	-10.4191
▁brown	-10.4191
Ac	-10.4193
▁pyoverdine	-10.4195
▁already	-10.42
▁resonance	-10.42
▁AIMS	-10.4211
host	-10.4216
▁fusion	-10.422
▁force	-10.4223
▁toxins	-10.4225
▁brasilense	-10.4226
▁relevance	-10.4226
▁decomposition	-10.4235
▁complexity	-10.4237
omycin	-10.4238
led	-10.4238
▁Dis	-10.424
▁freshwater	-10.4245
inter	-10.425
yn	-10.4251
virus	-10.4261
▁decision	-10.4261
▁mangrove	-10.427
pin	-10.4273
▁extremely	-10.4274
▁pore	-10.4278
▁Metabolic	-10.4279
OT	-10.4279
que	-10.4283
trans	-10.4285
▁CAT	-10.4286
▁randomly	-10.4288
isation	-10.4291
▁Ga	-10.4296
target	-10.4307
GH	-10.4314
▁intestine	-10.4315
idi	-10.4317
%),	-10.4317
▁Auxin	-10.432
▁electrolyte	-10.4322
▁NAC	-10.4322
▁Western	-10.4324
69	-10.4325
ivity	-10.4325
clo	-10.4326
glu	-10.4326
icin	-10.433
▁apparent	-10.433
▁mo	-10.4332
▁reporter	-10.4341
lip	-10.4344
▁Md	-10.4345
▁poultry	-10.435
ogenesis	-10.435
▁cyto	-10.435
▁Bi	-10.4355
▁receiving	-10.4359
SAR	-10.436
▁epiphytes	-10.4362
62	-10.4363
▁harbor	-10.4364
▁My	-10.4374
▁operation	-10.4376
▁amendment	-10.4379
▁specialized	-10.4388
▁faster	-10.4389
metric	-10.4396
ns	-10.4399
▁mixtures	-10.4399
▁synthetase	-10.4404
▁typically	-10.4406
▁pump	-10.4406
▁exercise	-10.4408
▁influencing	-10.4413
▁cattle	-10.4413
▁impairment	-10.4415
▁ligands	-10.4417
▁spectra	-10.4425
▁pigment	-10.4432
▁measurement	-10.4436
▁what	-10.444
▁hydrolysis	-10.444
▁First	-10.4449
▁coating	-10.4451
TI	-10.4458
▁Overexpression	-10.4459
bin	-10.4462
;=	-10.4462
▁(&	-10.4463
▁restriction	-10.4464
ceae	-10.4465
▁cyclic	-10.4472
▁activating	-10.4482
▁economically	-10.4483
▁methanol	-10.4484
icola	-10.4489
MO	-10.45
▁room	-10.4508
ria	-10.4509
▁predominantly	-10.4511
▁devices	-10.4512
▁Diversity	-10.4512
▁respective	-10.4513
tar	-10.4515
▁reviewed	-10.4518
CoA	-10.4522
▁pronounced	-10.453
▁Cells	-10.4531
dia	-10.4531
CV	-10.4534
▁issues	-10.4548
indole	-10.4552
▁rh	-10.4552
▁Br	-10.4553
▁Phyto	-10.4554
▁mis	-10.4555
sin	-10.4558
▁optimization	-10.456
PG	-10.4564
wa	-10.4565
▁degrading	-10.4566
▁synthesize	-10.4571
▁lethal	-10.4573
▁crosstalk	-10.4577
ful	-10.4578
din	-10.4582
▁biofertilizer	-10.4582
worm	-10.4586
▁SARS	-10.4586
▁plasmids	-10.459
SV	-10.4592
▁velezensis	-10.4594
▁killing	-10.4598
▁geo	-10.4601
▁fluconazole	-10.4604
▁Metal	-10.461
▁modulated	-10.461
▁mu	-10.4618
BI	-10.4619
▁germ	-10.4622
▁Su	-10.4623
▁input	-10.4624
▁Nevertheless	-10.4631
▁PGPB	-10.4631
▁subset	-10.4632
▁RE	-10.4642
▁biofertilizers	-10.4644
▁US	-10.4645
▁accurate	-10.4647
▁prime	-10.4648
▁arid	-10.4649
▁peripheral	-10.4649
Co	-10.4651
eng	-10.4659
expression	-10.466
mu	-10.4665
▁documented	-10.4665
stressed	-10.4668
ven	-10.4675
▁planktonic	-10.4677
▁Natural	-10.4677
▁pollen	-10.4677
▁term	-10.4681
ou	-10.4684
▁spectroscopic	-10.4686
▁filamentous	-10.4687
▁mediating	-10.4689
▁hybridization	-10.4689
▁lettuce	-10.4695
▁groundwater	-10.4696
▁manipulation	-10.4704
temperature	-10.4711
▁sole	-10.4713
oside	-10.4715
ral	-10.4718
▁name	-10.472
range	-10.4722
▁cloned	-10.4723
▁existence	-10.4734
1-1	-10.4736
7-	-10.4739
▁contrasting	-10.474
▁combining	-10.4741
▁periodontal	-10.4741
▁MYB	-10.4742
tended	-10.4749
▁lactic	-10.475
(+)	-10.4751
linked	-10.4753
oxide	-10.4754
▁separate	-10.4754
▁govern	-10.4755
▁channel	-10.4757
analysis	-10.4758
TG	-10.4758
],	-10.4758
▁mobility	-10.476
▁underwent	-10.476
▁Sinorhizobium	-10.4765
ons	-10.4768
▁phases	-10.4771
▁derivative	-10.4773
▁aid	-10.4773
▁Only	-10.4774
▁counts	-10.4774
Me	-10.4775
tron	-10.4777
▁discharge	-10.4779
ency	-10.478
▁hydrophobic	-10.4785
▁reach	-10.4786
▁deferoxamine	-10.4788
▁foundation	-10.4789
GST	-10.4792
way	-10.4793
▁combat	-10.4798
oids	-10.4799
▁Bacteroidetes	-10.48
▁defects	-10.4805
▁docking	-10.4807
▁verified	-10.4807
otic	-10.481
▁pine	-10.481
▁Mycobacterium	-10.4816
biotic	-10.482
▁tumors	-10.4822
sensing	-10.4825
▁earlier	-10.4825
▁take	-10.4826
▁ARGs	-10.4834
▁Quantitative	-10.4835
▁raw	-10.4836
known	-10.484
▁Strains	-10.4842
meric	-10.4849
▁mum	-10.4853
▁residual	-10.4854
▁alteration	-10.4854
mus	-10.4856
▁phytopathogenic	-10.4867
Pb	-10.4871
statin	-10.4876
▁90%	-10.4877
▁diets	-10.4888
▁GH	-10.4893
mit	-10.4895
▁overexpressing	-10.4899
GL	-10.4899
lot	-10.49
SL	-10.4907
▁procedures	-10.4908
▁optimum	-10.4908
▁MG	-10.4909
▁j	-10.4914
▁activator	-10.4919
ides	-10.4922
93	-10.4922
Ag	-10.493
▁constituents	-10.4936
▁OTUs	-10.4937
▁kinetic	-10.4937
▁opposite	-10.4948
▁prevented	-10.4952
▁phenol	-10.4959
▁Host	-10.496
CAT	-10.4962
trophic	-10.4962
Oryza	-10.4966
86	-10.4966
DI	-10.4966
▁Mediterranean	-10.4967
ik	-10.4974
TF	-10.4976
▁aestivum	-10.4976
▁infrared	-10.4976
▁fate	-10.4978
▁pairs	-10.4978
activation	-10.498
peptide	-10.4985
▁additive	-10.4987
▁exist	-10.4988
▁pool	-10.499
▁antagonists	-10.499
▁phylum	-10.4996
▁acting	-10.4996
▁soft	-10.4996
▁theory	-10.4998
▁drive	-10.5
▁phages	-10.5003
▁probe	-10.5003
▁extend	-10.5004
▁selectivity	-10.5005
▁OBJECTIVES	-10.5007
iae	-10.5012
long	-10.5012
500	-10.5013
▁Phytophthora	-10.5014
▁States	-10.5015
1/2	-10.5015
troph	-10.5022
logical	-10.5024
▁plate	-10.5029
group	-10.5031
mal	-10.5038
FC	-10.5041
molecular	-10.5042
▁cerevisiae	-10.5043
▁gastric	-10.5043
▁cytokine	-10.5048
▁DA	-10.5051
▁original	-10.5052
▁choice	-10.5053
▁herbivory	-10.5053
▁straw	-10.5053
▁culturable	-10.5057
▁restored	-10.5057
▁ribosomal	-10.5057
▁heterogeneity	-10.5062
▁property	-10.5063
▁2,4-	-10.5064
▁domestic	-10.5066
▁constitute	-10.5066
▁Fa	-10.5071
▁denitrification	-10.5072
ilis	-10.5072
▁starvation	-10.5076
▁Tr	-10.5077
▁Am	-10.508
LT	-10.5084
▁Isolated	-10.5084
function	-10.5084
hydr	-10.5089
▁Multiple	-10.509
▁pneumonia	-10.5096
▁share	-10.5097
▁construct	-10.5104
NR	-10.5109
conazole	-10.5111
▁Responses	-10.5113
▁nearly	-10.5114
▁specimens	-10.5123
gl	-10.5126
▁Genomic	-10.5129
mol	-10.5132
▁mitochondria	-10.5133
▁advantages	-10.5135
DP	-10.5136
TOF	-10.514
▁seem	-10.5145
tation	-10.5145
▁thought	-10.5147
▁chromium	-10.515
▁colonies	-10.515
▁120	-10.5152
dec	-10.5153
ei	-10.5155
alis	-10.5155
▁gibberellin	-10.5157
▁catalyze	-10.5158
▁Synthesis	-10.5158
▁farmers	-10.516
flow	-10.5163
▁Notably	-10.5168
▁functionally	-10.5169
▁Conclusions	-10.5169
rt	-10.5169
▁96	-10.5171
▁reservoir	-10.5172
▁parasites	-10.5172
▁Im	-10.5175
▁Methyl	-10.5176
▁concomitant	-10.5178
▁AgNPs	-10.5179
GP	-10.5181
▁herbivore	-10.5182
▁carrier	-10.5186
▁carcinoma	-10.5187
▁southern	-10.5188
▁grains	-10.5188
las	-10.519
▁Man	-10.519
▁vir	-10.5191
▁evidenced	-10.5192
▁donor	-10.5192
1.2	-10.5192
▁integration	-10.5197
▁mutualistic	-10.5198
toxin	-10.5201
▁embryo	-10.5202
▁desert	-10.5207
▁fungicides	-10.521
▁spore	-10.5211
▁upper	-10.5213
▁GSH	-10.5215
▁horizontal	-10.5217
▁participate	-10.5217
▁microalgae	-10.5219
▁farm	-10.5219
▁Salt	-10.522
tle	-10.5221
▁ionic	-10.5221
Ch	-10.5222
▁thin	-10.5222
▁egg	-10.5223
▁mar	-10.5223
▁vary	-10.5223
▁joint	-10.5226
▁proven	-10.5227
▁accelerated	-10.5229
▁motif	-10.5231
week	-10.5237
52	-10.5237
▁400	-10.5239
RC	-10.524
▁agronomic	-10.5246
▁eukaryotic	-10.5246
emic	-10.525
▁absolute	-10.5256
▁poplar	-10.5256
▁sorghum	-10.5256
▁mmol	-10.5259
▁drinking	-10.5261
pp	-10.5265
▁severely	-10.5266
▁300	-10.5266
▁proper	-10.5266
iso	-10.527
▁Biofilm	-10.5271
Zr	-10.5272
▁offers	-10.528
▁Ro	-10.5281
▁stressors	-10.5281
▁locus	-10.5284
▁attractive	-10.5286
EA	-10.5288
▁Cal	-10.5288
>	-10.5291
▁principal	-10.5295
▁films	-10.5296
▁harvest	-10.5299
idium	-10.5299
tract	-10.53
▁AT	-10.5304
▁Sh	-10.5307
▁Importantly	-10.5307
grass	-10.5307
▁hydrogel	-10.5311
ock	-10.5314
▁Rh	-10.5321
cu	-10.5322
Se	-10.5325
▁healthcare	-10.5326
xyl	-10.5329
▁solubilize	-10.533
▁Type	-10.5334
olic	-10.5335
▁trends	-10.5343
▁plastid	-10.5344
▁IN	-10.5348
▁aging	-10.5349
▁>=	-10.5354
▁Environmental	-10.5354
▁modern	-10.5354
▁bond	-10.5356
▁RNAs	-10.5359
▁cyst	-10.536
▁mal	-10.5362
▁marked	-10.5362
EG	-10.5363
▁analytical	-10.5364
lipid	-10.537
ition	-10.5371
▁0.02	-10.5372
ult	-10.5372
▁setting	-10.5375
▁imply	-10.5383
exposed	-10.5385
200	-10.5387
▁wet	-10.539
1.1	-10.5393
icum	-10.5397
▁CRISPR	-10.54
▁MDR	-10.5403
▁training	-10.5403
driven	-10.5405
stage	-10.5412
▁morbidity	-10.5413
▁39	-10.5414
▁SE	-10.5414
▁delay	-10.5415
▁stored	-10.5417
▁knockout	-10.5417
▁larval	-10.5423
83	-10.5428
▁Other	-10.5428
▁palm	-10.5435
▁49	-10.5441
▁app	-10.5443
▁consortia	-10.5443
we	-10.5443
▁THE	-10.5445
▁MB	-10.5446
▁mid	-10.5447
logy	-10.5451
DO	-10.5452
▁resilience	-10.5453
▁grew	-10.5453
RB	-10.5458
▁th	-10.5461
▁Ce	-10.5469
▁spores	-10.547
▁sustained	-10.5471
▁solvent	-10.5471
fluoro	-10.5471
▁homologous	-10.5474
▁dec	-10.5475
▁validation	-10.5475
▁Sm	-10.5476
PK	-10.5479
▁monocytogenes	-10.5483
▁market	-10.5483
▁Leaf	-10.5484
▁pigments	-10.549
DFO	-10.5491
ini	-10.5492
▁japonicus	-10.5493
▁phytoextraction	-10.5513
▁Transcriptome	-10.5513
▁faecalis	-10.5514
▁ester	-10.5516
CYP	-10.5518
▁repeat	-10.5519
▁75	-10.552
▁OR	-10.5523
performance	-10.5529
▁Significant	-10.5532
onia	-10.554
▁homo	-10.5541
▁ABC	-10.5546
▁Photo	-10.5549
site	-10.5561
▁possessed	-10.5561
▁Infection	-10.5562
▁amplification	-10.5563
▁equivalent	-10.5563
late	-10.5564
ract	-10.5566
▁shed	-10.5569
▁intensive	-10.5569
▁Research	-10.5573
GM	-10.5575
▁meat	-10.5579
arm	-10.5581
pur	-10.5581
tero	-10.5585
▁excessive	-10.5586
▁lineage	-10.5586
▁Ge	-10.5587
NB	-10.5587
bil	-10.5588
▁describes	-10.559
▁pesticide	-10.559
▁qu	-10.5592
▁repeated	-10.5593
▁Volatile	-10.5593
▁charge	-10.5598
▁Tolerance	-10.5604
▁causal	-10.5604
state	-10.5604
▁upstream	-10.5605
▁scores	-10.5606
▁mumol	-10.561
Cas	-10.5611
▁restoration	-10.5616
▁43	-10.562
▁favorable	-10.5626
chlor	-10.563
▁kinases	-10.5635
▁flo	-10.5644
▁thickness	-10.5645
▁exploited	-10.5651
▁Rhizoctonia	-10.5654
▁ma	-10.5655
▁AS	-10.5663
▁adequate	-10.5664
▁Mesorhizobium	-10.5665
metal	-10.5671
▁cat	-10.5671
▁ph	-10.5671
▁monitor	-10.5674
▁Comparison	-10.5675
▁PF	-10.5675
point	-10.5681
▁89	-10.5683
▁operational	-10.5685
▁hard	-10.5685
▁considering	-10.5692
▁electrode	-10.5696
▁cyanobacterial	-10.5696
63	-10.5703
▁ginseng	-10.5705
▁Indole	-10.5705
activity	-10.5711
qPCR	-10.5711
rac	-10.5714
infection	-10.5718
enol	-10.5719
▁plots	-10.572
▁assessing	-10.5726
phyte	-10.5729
lact	-10.5731
plasm	-10.5733
ida	-10.5735
▁0.001)	-10.5736
dose	-10.5736
▁fragment	-10.5742
▁interacts	-10.5753
▁abnormal	-10.5756
▁Community	-10.5757
▁Eu	-10.5757
har	-10.5759
▁organization	-10.576
3),	-10.5763
ses	-10.5765
▁encode	-10.5765
▁easily	-10.5767
▁library	-10.5767
▁solanacearum	-10.5767
▁dramatically	-10.5768
sum	-10.5773
▁Current	-10.5776
▁supports	-10.5776
▁older	-10.5777
▁symbioses	-10.5777
▁route	-10.5779
Seq	-10.578
microenvironment	-10.5784
aging	-10.5785
ier	-10.5786
anus	-10.5789
])	-10.579
▁antimicrobials	-10.579
▁blast	-10.579
LB	-10.5798
▁Total	-10.5798
▁consistently	-10.58
▁hyphae	-10.5818
▁0.03	-10.582
▁pose	-10.582
▁DSM	-10.5835
▁yellow	-10.5839
▁Antifungal	-10.5839
▁makes	-10.5844
▁z	-10.5849
▁elegans	-10.5849
▁tetracycline	-10.5849
lect	-10.5852
ulated	-10.5853
▁polymers	-10.5854
▁urea	-10.5863
▁concerns	-10.5864
bp	-10.5866
▁sperm	-10.5867
▁driving	-10.587
▁considerably	-10.587
▁questions	-10.5875
▁home	-10.5878
▁leakage	-10.5881
▁Enterococcus	-10.5881
▁aggregation	-10.5882
▁requirements	-10.5883
▁ones	-10.5885
▁possesses	-10.5895
▁Long	-10.5895
-4-	-10.5899
▁Brazil	-10.5901
▁anthropogenic	-10.5901
▁National	-10.5902
▁endemic	-10.5902
▁ultimately	-10.5904
▁CL	-10.5905
ave	-10.5907
iii	-10.5911
▁meet	-10.5915
glycerol	-10.5919
▁Consequently	-10.5922
▁Xanthomonas	-10.5922
LO	-10.5925
des	-10.5925
▁behavioral	-10.5925
▁qRT	-10.5927
istic	-10.5928
▁Europe	-10.5929
▁Nif	-10.593
▁alkaloids	-10.5933
▁sweet	-10.5933
▁ferric	-10.5939
unc	-10.594
▁cropping	-10.5943
▁map	-10.5945
▁plantarum	-10.5946
▁accessions	-10.5948
▁obvious	-10.5953
▁NPR	-10.5958
life	-10.5959
▁landscape	-10.5964
▁African	-10.5969
flu	-10.5972
HE	-10.5974
▁mimic	-10.5975
▁acetyl	-10.5977
ious	-10.5981
▁q	-10.5982
▁elicit	-10.5984
▁cues	-10.5985
▁mutans	-10.5985
▁infants	-10.5992
▁assist	-10.5992
▁Five	-10.5993
med	-10.5993
▁infect	-10.5994
▁rhizobacterium	-10.5996
▁Assessment	-10.5996
▁Wheat	-10.5996
EB	-10.5998
▁alleviated	-10.5999
▁declined	-10.6002
gel	-10.6002
EE	-10.6005
▁digestion	-10.6006
▁SD	-10.6007
▁aerial	-10.6007
ably	-10.6012
LF	-10.6015
▁heterogeneous	-10.6017
AE	-10.6021
Na	-10.6029
drug	-10.603
▁question	-10.6032
▁translation	-10.6039
▁precursors	-10.604
acc	-10.6042
ng	-10.6042
MG	-10.6046
Stenotrophomonas	-10.6048
▁powerful	-10.6049
▁ways	-10.6056
SEM	-10.6057
▁HT	-10.6058
▁Ne	-10.606
▁break	-10.6069
▁clustered	-10.607
fu	-10.6072
▁accelerate	-10.6077
tter	-10.6078
▁lost	-10.6084
▁polysaccharide	-10.6087
▁rock	-10.6092
▁express	-10.6093
▁spray	-10.6093
▁effluent	-10.6097
▁phylogeny	-10.6101
▁novo	-10.6106
ake	-10.6109
▁TLR	-10.6109
▁facilitat	-10.6111
▁SS	-10.6112
▁gradually	-10.6115
▁seasons	-10.6115
▁pigs	-10.6118
thal	-10.6121
▁optical	-10.6123
pot	-10.6123
▁diagnosed	-10.6123
▁TF	-10.6124
▁parent	-10.6125
▁mold	-10.6126
3000	-10.613
▁random	-10.6131
▁evaluating	-10.6133
▁sinensis	-10.6133
▁Following	-10.6137
▁ME	-10.614
▁consecutive	-10.6144
▁interplay	-10.6144
atory	-10.6145
▁hence	-10.6148
9-	-10.6153
▁Out	-10.6154
▁microbiological	-10.6155
▁initially	-10.6156
▁enterica	-10.6162
▁pan	-10.6164
bscisic	-10.6165
▁80%	-10.6167
▁cofactor	-10.6169
▁forage	-10.6169
▁Mb	-10.6172
▁qPCR	-10.6174
▁consider	-10.6175
▁hot	-10.618
sphere	-10.6182
▁compartments	-10.6185
ndr	-10.6186
▁attachment	-10.6187
▁Quorum	-10.6187
▁switch	-10.619
▁ser	-10.619
BM	-10.6193
ay	-10.6194
ases	-10.6197
graph	-10.6197
▁geographical	-10.6198
▁histone	-10.6199
cA	-10.62
▁Twenty	-10.6208
▁dispersal	-10.6208
tim	-10.621
▁citri	-10.6212
▁Mar	-10.6212
▁fuel	-10.6212
mann	-10.6215
▁strawberry	-10.6219
▁0.05	-10.622
▁cysteine	-10.6222
ble	-10.6225
▁own	-10.6226
ola	-10.6228
▁birth	-10.623
▁her	-10.6235
ON	-10.6236
▁carrying	-10.6238
▁Colletotrichum	-10.6241
▁biogeochemical	-10.6241
▁task	-10.6241
▁annotation	-10.6241
▁remaining	-10.6242
EL	-10.6245
ele	-10.6245
1.5	-10.6255
▁55	-10.6257
▁Given	-10.6262
▁Cancer	-10.6263
Es	-10.6265
controlled	-10.6269
fixation	-10.6272
▁chemotaxis	-10.6273
▁banana	-10.6273
▁layers	-10.6274
▁ver	-10.6277
▁dye	-10.6278
FT	-10.628
▁substitution	-10.6285
icus	-10.6289
Mo	-10.6289
▁climatic	-10.629
▁SEM	-10.6291
▁wetland	-10.6293
▁challenged	-10.6298
▁metagenomic	-10.6304
▁Specifically	-10.6307
▁homology	-10.631
▁researchers	-10.6316
▁ozone	-10.6317
ruc	-10.6319
max	-10.6327
▁dosage	-10.6327
meter	-10.6334
grown	-10.6335
▁hundred	-10.6338
▁pivotal	-10.6338
▁transplantation	-10.6342
▁Ru	-10.6343
ora	-10.6349
▁65	-10.6349
▁airway	-10.635
pine	-10.6357
Pro	-10.6359
▁confidence	-10.636
▁national	-10.636
▁cy	-10.6361
▁gold	-10.6363
▁Nt	-10.6368
dispers	-10.6372
▁create	-10.6376
▁methodology	-10.6378
▁activates	-10.6382
▁optimize	-10.6388
▁herbivores	-10.6389
▁indicator	-10.6393
▁2.0	-10.6395
▁enables	-10.6401
▁northern	-10.6404
▁PAHs	-10.6406
▁primed	-10.6413
nam	-10.6414
▁electrochemical	-10.6417
crop	-10.6417
RK	-10.642
▁44	-10.642
ster	-10.6425
▁measuring	-10.6426
▁spontaneous	-10.6426
▁GS	-10.6427
▁ground	-10.6428
ces	-10.6431
▁comprised	-10.6432
lay	-10.6436
▁metabolome	-10.6437
▁pharmacokinetic	-10.6437
▁Review	-10.6437
▁cholesterol	-10.6441
Cr	-10.6446
▁investigating	-10.6448
▁binds	-10.6454
%).	-10.6459
▁terminal	-10.6459
▁usage	-10.6461
▁transformed	-10.6461
▁HPV	-10.6464
tre	-10.6464
▁Reveal	-10.647
▁infestation	-10.6474
response	-10.6478
illa	-10.6479
▁Pt	-10.6479
▁neutrophil	-10.6481
▁separated	-10.6486
▁0,	-10.6486
▁Exogenous	-10.6492
▁carbohydrates	-10.6493
▁curve	-10.6493
▁incorporation	-10.6495
▁yielded	-10.6496
▁interacting	-10.6496
ove	-10.6498
▁99	-10.6502
▁neutrophils	-10.6502
▁Influence	-10.6503
▁perennial	-10.6503
equ	-10.6505
▁trade	-10.6506
methoxy	-10.6507
▁PAH	-10.6507
rid	-10.6508
▁center	-10.6515
ink	-10.6517
▁met	-10.6521
nitro	-10.6524
▁Drug	-10.6525
▁1)	-10.6528
▁1.3	-10.6536
▁chelators	-10.6537
▁sexual	-10.6538
▁1.4	-10.6539
▁consequently	-10.654
▁RS	-10.6547
▁vertical	-10.6558
▁68	-10.6566
▁axis	-10.6569
▁adjustment	-10.6572
vent	-10.6573
position	-10.6579
pent	-10.6584
▁Exposure	-10.6592
▁detrimental	-10.6592
▁honey	-10.6592
soil	-10.6592
▁postharvest	-10.6593
▁Tomato	-10.6595
▁illustrate	-10.66
▁learning	-10.6602
▁HC	-10.6607
▁genomics	-10.6609
▁Chi	-10.6611
▁MF	-10.6613
▁pregnancy	-10.6614
eu	-10.6615
▁TM	-10.6618
mis	-10.6619
▁nitrite	-10.6625
▁persist	-10.6627
▁(15	-10.6632
▁chamber	-10.6637
ise	-10.6637
▁20%	-10.664
inducible	-10.6646
▁meristem	-10.6648
▁Lotus	-10.6648
▁miRNA	-10.6652
▁uses	-10.6654
lactamase	-10.6654
ments	-10.6655
RO	-10.6658
omics	-10.6658
lysis	-10.6659
▁intact	-10.6659
▁conductivity	-10.6659
▁neurons	-10.666
benzo	-10.6661
▁bile	-10.6665
nitr	-10.6666
▁Then	-10.6673
▁MR	-10.6674
och	-10.6674
ulation	-10.6677
▁Nicotiana	-10.6683
▁transferred	-10.6685
0,	-10.6685
bl	-10.6686
▁%)	-10.6689
▁dilution	-10.669
▁dairy	-10.6693
▁tuber	-10.6695
▁rational	-10.6699
▁steroid	-10.67
▁resist	-10.6702
▁options	-10.6703
▁zebrafish	-10.6704
▁return	-10.6704
iana	-10.6706
bound	-10.6709
▁30%	-10.6713
▁ciprofloxacin	-10.6715
▁sustain	-10.6726
▁mercury	-10.6727
▁opportunities	-10.6727
▁grassland	-10.6728
ight	-10.6729
▁virulent	-10.6729
iz	-10.6732
matic	-10.6733
▁define	-10.6738
▁2014	-10.6739
▁batch	-10.674
▁complement	-10.6745
nd	-10.6745
▁left	-10.675
ground	-10.6754
▁cur	-10.6755
▁cer	-10.6756
▁IS	-10.6761
+/	-10.6762
ound	-10.6768
cyst	-10.6769
▁correct	-10.6769
▁coordination	-10.6773
▁Mass	-10.6774
▁Organic	-10.6775
▁wounds	-10.6777
▁functionality	-10.6779
▁ISR	-10.678
▁probiotics	-10.6782
icidal	-10.6788
▁hexa	-10.6794
▁revealing	-10.6794
▁Fourier	-10.6795
▁responded	-10.6795
▁Biocontrol	-10.6797
cut	-10.68
▁simulation	-10.68
static	-10.6801
▁indirectly	-10.6801
▁cope	-10.6805
▁tail	-10.6807
▁globally	-10.6813
▁back	-10.6816
▁reversed	-10.6817
▁hepatitis	-10.6818
▁Consider	-10.6818
▁repression	-10.6822
EPS	-10.6822
▁polymeric	-10.6823
▁hydraulic	-10.6829
▁ZnO	-10.683
loaded	-10.6831
▁1000	-10.6833
ABC	-10.6836
▁resin	-10.6838
▁capture	-10.6839
▁AA	-10.6839
▁distinguish	-10.6839
▁comprising	-10.684
▁channels	-10.6843
▁altering	-10.6843
▁foods	-10.6843
don	-10.6847
SB	-10.6848
▁46	-10.6852
lytic	-10.6852
▁GP	-10.6854
▁exo	-10.6858
▁burn	-10.6863
5).	-10.6871
▁(100	-10.6873
▁favor	-10.6875
▁Secondary	-10.6875
protective	-10.6876
▁studying	-10.6876
▁odor	-10.6876
HM	-10.6877
OE	-10.688
ja	-10.6883
pH	-10.6883
▁56	-10.6884
▁repressor	-10.6888
▁involve	-10.6889
▁70%	-10.6889
ographic	-10.6889
001	-10.6892
omic	-10.69
▁dental	-10.69
▁western	-10.6905
limited	-10.6909
▁constitutive	-10.691
▁deficient	-10.6912
▁Sc	-10.6919
pan	-10.6923
▁eggs	-10.6924
▁protocols	-10.6925
1;	-10.6927
ifi	-10.6929
0.5	-10.6929
▁divergence	-10.6932
bis	-10.6933
2]	-10.6941
▁aflatoxin	-10.6944
tub	-10.6946
▁images	-10.6955
▁compatible	-10.6956
▁Differential	-10.6958
▁mediates	-10.696
▁Ti	-10.6961
▁dys	-10.6969
vir	-10.697
▁sense	-10.6971
▁services	-10.6973
creased	-10.6975
▁Vv	-10.6982
▁reason	-10.6984
▁capabilities	-10.699
▁mapping	-10.6993
with	-10.6994
▁percent	-10.7001
▁seawater	-10.7003
▁niches	-10.7005
▁enabled	-10.7007
fin	-10.7009
▁tandem	-10.7012
▁circular	-10.7014
▁rhizobacterial	-10.7017
olin	-10.7018
▁regional	-10.702
▁scaffold	-10.7021
▁subject	-10.7023
0.9	-10.7023
▁bar	-10.7024
▁biologically	-10.7029
fa	-10.703
▁anthocyanin	-10.7033
▁beyond	-10.7037
▁categories	-10.7037
▁Trans	-10.704
▁simulations	-10.7044
transformation	-10.7051
▁GM	-10.7052
▁clean	-10.7057
▁mobile	-10.7058
▁inclusion	-10.706
▁harzianum	-10.7061
▁glycine	-10.7061
▁rarely	-10.7062
effective	-10.7062
▁el	-10.7065
▁bark	-10.7065
layer	-10.7066
za	-10.7067
PN	-10.7067
icide	-10.7071
▁vancomycin	-10.7072
▁purification	-10.7072
▁agreement	-10.7073
eae	-10.7074
▁op	-10.7075
▁fungicide	-10.7081
▁vegetable	-10.7081
thi	-10.7081
▁failed	-10.7083
▁DR	-10.7083
▁Cha	-10.7085
▁stream	-10.7086
▁metabolomic	-10.7093
▁catalyst	-10.7093
▁heterologous	-10.7095
apping	-10.7096
operative	-10.7099
▁polysaccharides	-10.7101
▁databases	-10.7101
▁uninoculated	-10.7103
▁(12	-10.7104
▁variant	-10.7104
▁expand	-10.7106
▁addressed	-10.7106
▁(~	-10.7111
▁convert	-10.7111
ya	-10.7117
▁allocation	-10.7119
▁individually	-10.712
ening	-10.713
61	-10.7139
miR	-10.7139
▁sleep	-10.7143
▁chelation	-10.7143
▁cut	-10.7146
JAZ	-10.7156
gainst	-10.7164
▁Sphingomonas	-10.7166
▁middle	-10.7166
cyto	-10.7166
ESI	-10.7171
uk	-10.7171
oxygenase	-10.7175
▁Do	-10.7176
▁manage	-10.7176
▁acclimation	-10.718
▁electrical	-10.7183
▁actinobacteria	-10.7184
▁Sb	-10.719
sectional	-10.7192
0.7	-10.7193
▁elicited	-10.7199
▁TP	-10.7199
▁offspring	-10.7202
▁Meta	-10.7204
▁incorporated	-10.7206
ena	-10.7208
MF	-10.7209
▁restrict	-10.7211
▁triple	-10.7213
▁utilizing	-10.7214
▁assembled	-10.722
▁film	-10.7224
▁amplified	-10.7228
▁imp	-10.7232
dr	-10.7232
▁kill	-10.7232
ire	-10.7233
▁em	-10.7233
nor	-10.7237
derm	-10.7237
▁proto	-10.7238
shaped	-10.7239
▁inducible	-10.724
▁coordinate	-10.724
▁hydroponic	-10.7247
▁consequence	-10.7249
▁mitigation	-10.7249
▁Microbiome	-10.725
-17	-10.7252
▁loaded	-10.7255
▁mobilization	-10.7258
▁Use	-10.7258
▁Wolbachia	-10.7261
IB	-10.7267
FM	-10.7267
cephal	-10.7269
ano	-10.7269
▁AHL	-10.7274
▁predictive	-10.7279
tam	-10.728
fat	-10.7286
deoxy	-10.7288
▁bioactivity	-10.7289
▁loop	-10.729
-450	-10.7301
1.0	-10.7307
bacterium	-10.7309
ido	-10.7309
▁hypocotyl	-10.7309
▁reactor	-10.7311
▁ITS	-10.7315
▁nitro	-10.7318
sorb	-10.7319
▁experimentally	-10.7324
▁race	-10.7327
▁scenarios	-10.7328
0.4	-10.7331
▁IMPACT	-10.7333
▁device	-10.7333
▁Inhibition	-10.7335
yo	-10.7335
▁coupling	-10.7335
inus	-10.7337
epi	-10.7338
Os	-10.7339
▁Conversely	-10.7345
▁duplication	-10.7345
▁computational	-10.7345
91	-10.7346
▁microorganism	-10.7346
▁pathological	-10.7352
▁lesion	-10.7358
▁sets	-10.7359
Triticum	-10.7359
▁fall	-10.7365
3/	-10.7369
▁analyzing	-10.7369
▁plaque	-10.7369
▁always	-10.7369
▁KEY	-10.7369
▁Cy	-10.737
▁rotation	-10.7373
butyl	-10.7376
bs	-10.7376
▁modify	-10.7377
▁filtrate	-10.7381
▁instead	-10.7381
▁effectors	-10.7388
▁sap	-10.7388
▁Interactions	-10.7391
▁densities	-10.7393
▁herbicide	-10.7395
arum	-10.7396
acyl	-10.7398
ago	-10.7399
▁colonizing	-10.7399
▁spacer	-10.74
▁fire	-10.74
rate	-10.7402
▁motifs	-10.7412
▁CM	-10.7417
▁IA	-10.7417
▁elusive	-10.7418
▁unidentified	-10.7418
▁Global	-10.7418
metry	-10.7419
▁stressed	-10.742
▁na	-10.7425
1).	-10.7427
-16	-10.7428
ash	-10.743
▁sequential	-10.743
▁chromatin	-10.743
▁HD	-10.743
▁drivers	-10.7432
▁AB	-10.744
ibacter	-10.7441
tt	-10.7446
▁bias	-10.7447
furan	-10.7451
cycle	-10.7452
-13	-10.7453
▁benzene	-10.7454
▁Azotobacter	-10.7454
▁difficile	-10.7454
▁draft	-10.7455
BB	-10.7457
eria	-10.7457
▁humic	-10.7459
loc	-10.7459
PGPB	-10.746
▁exploit	-10.7465
▁decay	-10.7467
▁HO	-10.7469
▁fixing	-10.7473
Is	-10.7479
hr	-10.7482
▁facilitated	-10.7483
including	-10.7485
▁parental	-10.749
▁geographic	-10.749
▁rainfall	-10.7491
ML	-10.7491
▁consideration	-10.7494
rk	-10.7494
▁And	-10.7502
▁buffer	-10.7503
▁signs	-10.7503
▁coefficient	-10.7508
test	-10.7509
▁5%	-10.7512
▁triggers	-10.7518
▁modes	-10.7519
light	-10.7521
▁estimates	-10.7521
▁clones	-10.7521
RG	-10.7525
▁juvenile	-10.7527
▁rain	-10.7528
▁(0	-10.7529
▁SO	-10.7532
-14	-10.7536
▁commercially	-10.7537
▁sulfide	-10.7538
▁identical	-10.754
▁Antibacterial	-10.7541
▁succession	-10.7541
▁interleukin	-10.7545
▁ideal	-10.7547
ibility	-10.7553
▁nu	-10.7554
▁Sal	-10.7558
fo	-10.7558
▁implemented	-10.7559
int	-10.7561
step	-10.7561
▁haem	-10.7562
▁incubated	-10.7562
▁ve	-10.7564
▁waters	-10.757
ore	-10.7575
▁breath	-10.7577
▁collagen	-10.7577
▁polyketide	-10.7577
▁macrophage	-10.7578
▁visible	-10.7581
%.	-10.7584
▁sclerotiorum	-10.7589
GD	-10.7589
omega	-10.7594
strain	-10.7595
tes	-10.7597
▁machinery	-10.7602
rum	-10.7609
▁BP	-10.761
▁methicillin	-10.7614
▁heterotrophic	-10.7614
▁CN	-10.7617
ones	-10.7618
CW	-10.7624
▁blot	-10.7627
▁sol	-10.7629
▁infant	-10.7631
▁Isolates	-10.7638
▁preliminary	-10.7641
opsis	-10.7647
prop	-10.7647
▁sizes	-10.7648
▁livestock	-10.7651
MM	-10.7653
ility	-10.7655
▁5,	-10.7658
nc	-10.7659
tum	-10.7662
▁ulcer	-10.7663
▁noted	-10.7664
▁rhizobium	-10.7664
▁conidia	-10.7669
east	-10.7669
gan	-10.7676
bZIP	-10.768
▁suppressing	-10.7683
BT	-10.7687
▁focusing	-10.7687
▁nickel	-10.7688
phyll	-10.769
▁52	-10.769
osus	-10.7694
▁fly	-10.7696
▁Ser	-10.7696
▁scarce	-10.7701
▁halo	-10.7705
▁vaginal	-10.7707
ren	-10.7708
▁interfere	-10.7711
genesis	-10.7712
▁ligase	-10.7713
biofilm	-10.7714
▁systematically	-10.7718
▁supernatant	-10.7719
▁farms	-10.7721
ker	-10.7721
ule	-10.7722
▁phenylpropanoid	-10.7726
▁solubility	-10.7726
▁cellulase	-10.7726
▁chemotherapy	-10.7726
8+	-10.7726
▁Enhanced	-10.7727
▁starting	-10.7728
▁Solanum	-10.7728
▁scenario	-10.7731
▁EP	-10.7732
generating	-10.7733
▁placed	-10.7735
alk	-10.7736
▁temperate	-10.7738
atic	-10.774
▁clearance	-10.774
race	-10.774
▁MAPK	-10.7741
▁(4)	-10.7743
▁pig	-10.7744
▁adjuvant	-10.7746
▁quantity	-10.7751
▁sewage	-10.7751
▁precise	-10.7752
▁par	-10.7754
▁actin	-10.7756
▁alters	-10.7757
▁experienced	-10.776
osum	-10.7764
▁detail	-10.7764
▁itself	-10.7764
▁mucosal	-10.7767
ography	-10.7768
▁(>	-10.777
NE	-10.7771
UV	-10.7774
▁immunization	-10.7776
▁American	-10.7776
▁birds	-10.7776
physiological	-10.778
▁panel	-10.7782
▁preference	-10.7784
ists	-10.7788
▁Salicylic	-10.7788
▁vehicle	-10.7788
▁fewer	-10.7795
▁embryos	-10.7795
▁insecticide	-10.7796
▁omega	-10.7797
▁peat	-10.7798
3%,	-10.7802
▁stand	-10.7805
ING	-10.7805
▁tend	-10.7808
▁substance	-10.7808
▁sponge	-10.7809
▁metallo	-10.781
agin	-10.7812
▁consists	-10.7812
▁Immuno	-10.7814
▁Soybean	-10.7814
▁tailings	-10.7814
▁bioreactor	-10.7814
por	-10.7818
▁counteract	-10.7818
▁conduct	-10.782
aving	-10.782
lactam	-10.7821
▁41	-10.7824
▁Lu	-10.7827
ectin	-10.7832
quality	-10.7834
▁impacted	-10.7835
▁RP	-10.7837
▁Hydro	-10.7842
Di	-10.7846
▁intermediates	-10.7849
▁rhizome	-10.785
▁mildew	-10.7851
▁Endophytes	-10.7856
enzyme	-10.7857
▁Ver	-10.7858
▁analogues	-10.7862
▁confocal	-10.7864
▁chinensis	-10.7864
own	-10.7865
▁bla	-10.7866
▁lab	-10.7866
▁medication	-10.7872
▁Compound	-10.7872
▁cereal	-10.7872
▁Up	-10.7872
rim	-10.7875
▁export	-10.788
▁stimulating	-10.7884
▁fragments	-10.7888
▁guide	-10.7888
▁Asia	-10.789
▁annotated	-10.789
▁recurrent	-10.7891
resolution	-10.7896
▁Iran	-10.7897
▁solubilizing	-10.7897
▁1%	-10.7899
▁Physiological	-10.7902
▁osmo	-10.7905
-11	-10.7905
HSL	-10.7906
rop	-10.7908
▁floral	-10.7909
tolerance	-10.792
▁ESBL	-10.7921
▁toluene	-10.7924
▁glutamate	-10.7928
▁circulating	-10.7928
▁lactone	-10.793
▁60%	-10.793
▁inputs	-10.7934
▁reflected	-10.7937
Methylobacterium	-10.794
▁54	-10.794
▁catechol	-10.7941
RNAs	-10.7941
▁burst	-10.7942
azole	-10.7948
osome	-10.795
▁Post	-10.7953
▁monoculture	-10.7954
month	-10.7954
▁friendly	-10.7954
▁gland	-10.7955
▁complementary	-10.7955
rea	-10.7965
▁belongs	-10.7969
▁partners	-10.7971
▁(50	-10.7973
DEGs	-10.7973
▁biomarker	-10.7976
▁farming	-10.7979
150	-10.7979
▁bud	-10.7981
unt	-10.7982
▁pollutant	-10.7983
▁chemically	-10.7984
ves	-10.7989
81	-10.7991
▁Pyr	-10.7991
acid	-10.7992
AK	-10.7993
▁1.6	-10.7999
▁compromised	-10.8004
▁configuration	-10.8005
▁Alter	-10.8005
ids	-10.8009
air	-10.8015
▁highlighting	-10.8015
lleviating	-10.8018
▁Structure	-10.8018
▁VI	-10.8018
▁pen	-10.8019
▁Saccharomyces	-10.802
▁Nod	-10.8022
▁protecting	-10.8028
▁Evidence	-10.803
▁periodontitis	-10.803
▁bacteriocin	-10.8031
▁outbreaks	-10.8033
▁exclusively	-10.8035
▁once	-10.804
▁utility	-10.8043
rat	-10.8044
▁Lake	-10.8045
▁just	-10.8047
▁proteomics	-10.8052
tile	-10.8055
ji	-10.8056
▁adherence	-10.8056
▁weather	-10.8056
▁accounted	-10.8059
▁heme	-10.806
fed	-10.8063
oxa	-10.8064
▁emphasize	-10.8065
▁chicken	-10.8067
▁(=	-10.8067
▁transpiration	-10.8069
▁Antioxidant	-10.807
talk	-10.8071
▁adding	-10.8071
▁Various	-10.8072
EV	-10.8076
▁top	-10.8078
risk	-10.8082
▁cleavage	-10.8082
feeding	-10.8084
▁Increase	-10.8085
AMF	-10.8085
len	-10.8087
▁1.8	-10.8093
▁sunflower	-10.8095
▁Regulation	-10.8095
▁25%	-10.8098
▁des	-10.8098
component	-10.8102
▁concerning	-10.8102
▁America	-10.8108
▁Microbiota	-10.8108
▁leguminosarum	-10.8108
VD	-10.8109
▁Para	-10.8111
ds	-10.8114
FS	-10.8119
gave	-10.812
▁cabbage	-10.8121
▁ongoing	-10.8121
▁biosurfactant	-10.8122
▁Food	-10.8122
soci	-10.8122
▁retrospective	-10.8123
▁gap	-10.8123
soluble	-10.8124
▁0.04	-10.8124
rhiz	-10.8129
osin	-10.8133
▁genotypic	-10.8134
ama	-10.8135
▁polyethylene	-10.8138
tig	-10.8145
-1),	-10.8145
▁gradients	-10.8147
▁wounding	-10.8148
bacill	-10.8151
uli	-10.8152
▁enabl	-10.816
▁Cyanobacteria	-10.8161
▁critically	-10.8167
▁month	-10.8169
RM	-10.8173
▁PURPOSE	-10.8173
▁transcribed	-10.8173
▁carriers	-10.8181
▁compositions	-10.8184
▁asthma	-10.8185
▁capacities	-10.8186
▁cyanide	-10.8186
▁graphene	-10.8186
▁actual	-10.8188
ARF	-10.8189
▁rely	-10.8189
▁phenolics	-10.8192
harvest	-10.8192
▁AIM	-10.8193
▁fo	-10.8196
ich	-10.8197
mel	-10.8198
▁start	-10.82
▁recruitment	-10.82
/6	-10.8202
HO	-10.8203
oxi	-10.8204
▁MYC	-10.8205
ION	-10.8212
▁diarrhea	-10.8213
▁dysbiosis	-10.8213
brominated	-10.8213
▁meso	-10.8215
▁dioxide	-10.8216
0.8	-10.8217
▁PH	-10.8221
▁clarify	-10.8226
cular	-10.8228
▁contributions	-10.8231
▁inner	-10.8234
ough	-10.8236
2.1	-10.8237
▁completed	-10.8238
▁exploration	-10.8239
▁PE	-10.8239
▁selectively	-10.824
▁spin	-10.824
cat	-10.8243
▁carotenoid	-10.8245
▁insecticides	-10.8245
vascular	-10.8246
van	-10.8248
▁Nrf	-10.8251
omycetes	-10.8251
▁grouped	-10.8252
▁graminearum	-10.8252
▁neither	-10.8252
▁serine	-10.8252
escence	-10.8252
▁microscopic	-10.8253
0.6	-10.8253
▁bodies	-10.8256
▁MATERIALS	-10.8257
▁exerted	-10.8259
▁tolerate	-10.8265
▁feasibility	-10.8265
▁hypertension	-10.8265
▁phenylalanine	-10.8268
sk	-10.8276
▁absent	-10.8278
▁defective	-10.8279
▁sustainability	-10.828
▁MP	-10.828
inum	-10.8286
▁INTRODUCTION	-10.8292
▁EDTA	-10.8295
py	-10.8298
phen	-10.83
▁PCB	-10.8302
▁classical	-10.8305
▁adaptations	-10.8308
Based	-10.8313
▁partly	-10.8318
▁bovine	-10.8318
▁electrophoresis	-10.8318
82	-10.8319
▁GL	-10.8325
▁beetle	-10.8329
▁(25	-10.8332
osomal	-10.8334
▁mini	-10.8336
ius	-10.8338
▁similarities	-10.834
▁conjugates	-10.8347
2.6	-10.8353
▁glycerol	-10.8353
▁none	-10.8353
▁NA	-10.8353
▁amendments	-10.8355
▁hydrophilic	-10.8358
▁option	-10.836
two	-10.8371
▁defensive	-10.8371
▁12-	-10.8373
▁cytoplasm	-10.8378
BE	-10.838
products	-10.838
▁Objective	-10.8385
▁cortex	-10.8385
spore	-10.8388
▁47	-10.8397
▁Gu	-10.8397
oral	-10.8397
▁broiler	-10.8398
▁blend	-10.8398
▁64	-10.8398
amin	-10.8399
▁north	-10.8399
▁turnover	-10.8399
▁depression	-10.84
▁outside	-10.8402
▁formula	-10.8403
▁allele	-10.8408
▁gained	-10.8412
bit	-10.8416
▁sink	-10.8417
stain	-10.8421
▁TN	-10.8422
bar	-10.8424
▁innovative	-10.8425
▁shorter	-10.8425
CG	-10.8428
▁reductions	-10.8428
▁right	-10.8428
▁actions	-10.8428
▁scales	-10.8429
lysin	-10.8437
▁province	-10.8438
1%,	-10.8442
▁chelating	-10.8443
▁ether	-10.8443
▁53	-10.8444
▁exudation	-10.8452
▁Early	-10.8452
▁deliver	-10.8452
cancer	-10.8458
▁carbapenem	-10.8459
NI	-10.8464
▁carotenoids	-10.8466
▁potency	-10.8466
▁helpful	-10.8467
▁sterile	-10.8468
▁compete	-10.8469
▁thio	-10.847
▁LA	-10.8474
▁Six	-10.8478
▁diffraction	-10.8479
▁USA	-10.848
▁neuronal	-10.848
Ni	-10.8483
▁created	-10.8483
aldehyde	-10.8486
ophora	-10.8486
propyl	-10.8489
ifying	-10.8489
▁250	-10.849
cm	-10.849
functional	-10.8491
▁Endo	-10.8492
▁remarkably	-10.8492
▁Signaling	-10.8493
▁defect	-10.8494
Induced	-10.8502
limiting	-10.8502
benz	-10.8504
▁Des	-10.8504
▁topical	-10.8506
▁efficiencies	-10.8506
▁security	-10.8506
ita	-10.851
▁consumed	-10.851
▁Lo	-10.851
▁editing	-10.8513
cro	-10.8518
▁silica	-10.852
ulus	-10.8524
▁atmosphere	-10.8533
▁fluxes	-10.8542
rgic	-10.8544
oxidation	-10.8544
vinyl	-10.8544
▁halophyte	-10.8547
▁entry	-10.8548
▁fever	-10.8549
LY	-10.8552
▁amended	-10.8556
▁rod	-10.8556
▁implant	-10.8558
▁industries	-10.856
microbial	-10.8564
odo	-10.8566
▁caspase	-10.857
▁attenuate	-10.8574
▁recycling	-10.8575
top	-10.8579
▁Epi	-10.8581
▁lycopersicum	-10.8587
▁glass	-10.8587
▁clonal	-10.8587
▁entero	-10.8589
rhizobia	-10.8591
var	-10.8593
▁prop	-10.8593
GB	-10.8594
▁alternatives	-10.8597
▁spot	-10.8599
etic	-10.86
aris	-10.86
▁neo	-10.8601
▁timing	-10.8601
▁sepsis	-10.8601
▁construction	-10.8609
dimethyl	-10.8612
▁phy	-10.8614
▁Future	-10.8615
itu	-10.862
▁ubiquitin	-10.8623
▁hydroxyl	-10.8625
▁correspond	-10.8626
rbuscular	-10.8627
sim	-10.8628
order	-10.8629
▁conferred	-10.8631
▁Res	-10.8632
Ga	-10.8633
▁GB	-10.8633
polluted	-10.8639
▁variance	-10.8642
▁module	-10.8647
▁polymorphism	-10.8647
char	-10.8651
symbiotic	-10.8652
▁arm	-10.8652
▁reprogramming	-10.8656
▁apical	-10.8656
▁PO	-10.8661
▁HSP	-10.8662
▁raised	-10.8665
▁Heavy	-10.8669
down	-10.8673
unable	-10.8675
NCED	-10.8676
▁24-	-10.8678
▁deal	-10.8684
▁aphids	-10.8687
▁EO	-10.8689
▁detectable	-10.8689
▁Or	-10.8691
▁Electro	-10.8691
▁coordinated	-10.8691
4),	-10.8692
▁porous	-10.8693
Solanum	-10.8694
MSCs	-10.8696
omyces	-10.8698
print	-10.8699
▁retained	-10.8701
▁read	-10.8701
▁perspectives	-10.8703
▁wave	-10.8705
orum	-10.8708
ara	-10.8709
▁comparisons	-10.871
▁sequestration	-10.8711
▁versatile	-10.8711
▁phloem	-10.8724
▁dust	-10.873
▁IP	-10.8733
▁diminished	-10.8734
overexpressing	-10.8736
▁nitrification	-10.8738
▁immobilization	-10.8738
▁anion	-10.8739
▁phospholipid	-10.8739
▁patho	-10.8739
hem	-10.874
▁51	-10.874
▁minimize	-10.8743
field	-10.8749
▁adjacent	-10.8752
▁epidermal	-10.8752
▁shaping	-10.8752
ocyte	-10.8753
encoding	-10.8754
▁HCV	-10.8757
GSH	-10.8758
▁1.7	-10.8759
▁curcumin	-10.8759
▁parameter	-10.8759
▁PV	-10.8759
▁catabolism	-10.8766
▁viz	-10.8767
▁MI	-10.8768
▁antitumor	-10.8769
ination	-10.877
▁downregulation	-10.8771
cyclo	-10.8777
zy	-10.8778
amycin	-10.8779
▁excretion	-10.878
▁niger	-10.8781
▁Syn	-10.8782
sub	-10.8783
▁predictions	-10.8786
till	-10.8788
▁(0.0	-10.8789
▁reads	-10.8789
▁ce	-10.8791
▁associate	-10.8794
2).	-10.8799
▁Factor	-10.8801
▁58	-10.8803
▁inform	-10.8807
▁alginate	-10.8808
▁peach	-10.8814
rium	-10.8815
▁list	-10.8818
▁Currently	-10.8823
▁But	-10.8823
▁antioxidative	-10.8824
▁Gut	-10.8825
ometric	-10.8826
dventitious	-10.8836
▁grasses	-10.8837
▁protects	-10.8837
▁DI	-10.8843
▁clone	-10.8849
▁emphasis	-10.885
▁arrest	-10.885
▁emitted	-10.885
▁RB	-10.8864
▁repressed	-10.8866
▁Virus	-10.887
▁PG	-10.8871
▁Combined	-10.8874
mes	-10.8876
▁GI	-10.8877
▁alleviation	-10.8878
▁amphotericin	-10.8878
▁causative	-10.8878
▁pediatric	-10.8878
▁Maize	-10.888
▁Whole	-10.888
▁diazotroph	-10.8881
uan	-10.8881
▁mycorrhiza	-10.8882
▁40%	-10.8886
▁Screening	-10.8892
▁secrete	-10.8892
▁scaffolds	-10.8896
fr	-10.8904
▁Province	-10.8906
▁IgG	-10.8906
ylation	-10.8911
▁7-	-10.8914
▁glyco	-10.8919
▁January	-10.892
▁description	-10.892
▁unusual	-10.892
▁NADPH	-10.892
▁recommendations	-10.892
aph	-10.8923
factor	-10.8928
▁EA	-10.8931
▁sensors	-10.8931
▁Populus	-10.8932
▁Alpha	-10.8934
▁aboveground	-10.8935
▁hold	-10.894
▁web	-10.8941
▁Can	-10.8944
▁GABA	-10.8946
occurrence	-10.8946
TT	-10.8947
▁mutagenesis	-10.8948
▁tumour	-10.8948
▁equal	-10.8948
olide	-10.8955
▁eliminate	-10.8956
▁sero	-10.8957
▁lymph	-10.8959
EX	-10.896
▁bicolor	-10.8963
▁actinomycetes	-10.8963
▁cDNA	-10.897
▁decade	-10.8972
-/-	-10.8975
centr	-10.8976
▁complicated	-10.8976
▁pancreatic	-10.8976
▁cyanobacterium	-10.8977
ural	-10.8978
dl	-10.8978
oxic	-10.8979
▁Actin	-10.898
▁Australia	-10.8981
▁hydrogels	-10.8983
▁SnRK	-10.8984
▁morpho	-10.8986
▁exudate	-10.8986
weight	-10.8987
▁regimes	-10.8989
tail	-10.899
HPLC	-10.9003
▁Verticillium	-10.9005
▁polymyxa	-10.9005
▁rape	-10.9005
▁cytokinins	-10.9006
▁Similar	-10.9008
0,000	-10.9009
digest	-10.901
▁chosen	-10.9019
▁deleterious	-10.9019
▁bioaccumulation	-10.9021
▁catalysts	-10.9023
mycin	-10.9024
▁Transcription	-10.9024
8.0	-10.903
▁quercetin	-10.9033
▁Higher	-10.9035
▁band	-10.9036
▁fur	-10.9038
▁walls	-10.9039
▁PET	-10.904
rine	-10.9042
▁MD	-10.9044
▁segment	-10.9045
▁vesicles	-10.9045
▁ru	-10.9046
eta	-10.9048
▁achiev	-10.9048
156	-10.9051
▁Sol	-10.9054
LV	-10.9055
therapy	-10.9058
▁PT	-10.9061
▁ev	-10.9061
▁import	-10.9061
▁Network	-10.9062
▁Mechanisms	-10.9068
bre	-10.9068
dan	-10.9071
mid	-10.9071
radi	-10.9072
▁outbreak	-10.9073
Gs	-10.9073
formed	-10.9073
▁calculations	-10.9074
▁feasible	-10.9076
▁profound	-10.9076
▁universal	-10.9076
▁micrograms	-10.9076
▁dataset	-10.9079
lex	-10.9083
ony	-10.9086
ram	-10.9088
receptor	-10.9089
hybrid	-10.909
▁harvested	-10.9092
rho	-10.9094
ever	-10.9099
tain	-10.9101
▁empirical	-10.9102
▁pair	-10.9104
▁quantum	-10.9105
▁software	-10.9105
▁dissolution	-10.9105
▁citric	-10.9106
▁maximal	-10.9107
LL	-10.911
iensis	-10.9111
rd	-10.9118
▁prokaryotic	-10.9119
▁promise	-10.9119
▁cord	-10.9119
▁2)	-10.9122
arch	-10.913
▁How	-10.9131
FD	-10.9132
▁alleles	-10.9132
oxidant	-10.9133
▁orange	-10.9136
▁Hu	-10.9136
ema	-10.9137
▁urgent	-10.9137
▁antibiofilm	-10.9138
diphenyl	-10.9139
▁Indian	-10.9142
flor	-10.9144
chron	-10.9146
mar	-10.9146
▁NR	-10.9148
▁subfamily	-10.9149
▁chromosomes	-10.9149
▁SF	-10.9156
LI	-10.9157
ote	-10.9158
nu	-10.9161
targeted	-10.9163
▁Transcriptomic	-10.9163
are	-10.9164
▁wax	-10.9165
▁cytoplasmic	-10.9165
cellular	-10.9173
eat	-10.9175
▁NK	-10.9177
▁sativum	-10.9177
▁Rhizo	-10.9184
▁Cys	-10.9186
▁coal	-10.9189
uri	-10.919
▁marcescens	-10.9191
▁pin	-10.9196
cost	-10.9197
men	-10.9201
▁Chronic	-10.9206
▁error	-10.9206
oyl	-10.9209
▁Insights	-10.9215
▁strongest	-10.9217
▁education	-10.922
▁popular	-10.922
benzene	-10.9222
▁dependence	-10.9223
-2)	-10.9225
▁expressions	-10.9225
▁facilitates	-10.9227
product	-10.9233
▁structurally	-10.9233
▁chelator	-10.9234
▁neonatal	-10.9235
▁pulse	-10.9235
▁output	-10.9236
▁knockdown	-10.925
▁prey	-10.9252
▁routine	-10.9253
▁OS	-10.9254
▁auxins	-10.9255
tone	-10.9255
▁SI	-10.9262
▁hairy	-10.9263
glucosidase	-10.9264
▁dressing	-10.9264
▁indoor	-10.9265
pod	-10.9265
▁callus	-10.9268
lis	-10.927
ki	-10.9275
▁dahliae	-10.9279
▁japonicum	-10.9279
▁unravel	-10.9279
▁2020	-10.9279
labeled	-10.9282
3.5	-10.9285
ococcus	-10.9287
bia	-10.9289
FE	-10.9292
▁Within	-10.9293
▁Typhimurium	-10.9293
▁enrolled	-10.9293
triggered	-10.9294
▁saliva	-10.9294
UT	-10.9295
▁barriers	-10.9295
▁Neo	-10.9302
▁fermented	-10.9305
tune	-10.9305
▁Vi	-10.9309
▁clinic	-10.9311
▁Accordingly	-10.9313
BF	-10.9315
grade	-10.9318
saccharide	-10.9322
▁Central	-10.9323
▁colistin	-10.9323
MRSA	-10.9327
ibr	-10.9329
▁ash	-10.9332
acu	-10.9333
▁Hospital	-10.9337
▁narrow	-10.9338
▁herein	-10.9342
▁working	-10.9344
arc	-10.9348
▁presentation	-10.935
▁Not	-10.9351
translational	-10.9353
rap	-10.9354
▁DH	-10.9354
ura	-10.936
400	-10.9362
▁Induced	-10.9363
▁woody	-10.9366
▁World	-10.9367
▁Structural	-10.9367
▁diversification	-10.9367
▁wine	-10.9368
quinone	-10.9372
▁Test	-10.9373
nin	-10.9377
ester	-10.938
▁phenazine	-10.9381
▁Salinity	-10.9381
genetic	-10.9382
▁Colonization	-10.9382
lium	-10.9382
TD	-10.9383
FI	-10.9384
hyperaccumulator	-10.9385
idase	-10.9386
SK	-10.9388
▁SY	-10.9388
▁homologs	-10.9392
▁Increasing	-10.9396
▁probability	-10.9396
▁behind	-10.9396
▁CE	-10.9396
▁monomer	-10.9402
▁rust	-10.9403
▁image	-10.9404
▁dead	-10.9404
▁flora	-10.9406
from	-10.9407
▁mays	-10.9408
ident	-10.9411
▁operating	-10.9411
inositol	-10.9412
▁ARF	-10.9415
▁elicitors	-10.9416
row	-10.9417
ft	-10.9419
▁trap	-10.9423
mean	-10.9424
Zea	-10.9425
▁EN	-10.9435
▁eu	-10.9435
9%,	-10.9439
▁Symbiotic	-10.9441
parasitic	-10.9442
well	-10.9443
▁notably	-10.9443
▁mosquito	-10.945
3.1	-10.9455
atch	-10.9462
iformis	-10.9464
▁Heat	-10.9468
▁HFD	-10.9469
▁Campylobacter	-10.947
▁piglets	-10.947
▁PL	-10.9472
▁SR	-10.9477
ospora	-10.9478
▁DS	-10.9479
▁recommend	-10.9479
exp	-10.948
▁BS	-10.9484
▁hybrids	-10.9485
▁Oxidative	-10.9485
▁kDa	-10.9485
-18	-10.9486
▁nest	-10.9486
uck	-10.9486
legume	-10.9487
▁Factors	-10.9492
▁NC	-10.9494
ech	-10.9498
▁penetration	-10.95
▁cytometry	-10.9501
▁subcellular	-10.9502
growing	-10.9503
▁bis	-10.9504
St	-10.9505
▁FL	-10.9509
=0	-10.9509
Mn	-10.951
▁QTL	-10.9515
▁chilling	-10.9515
▁proteases	-10.9519
▁JAZ	-10.9519
▁azole	-10.9523
▁speciation	-10.953
naphthoflavone	-10.953
▁edible	-10.953
ectomy	-10.954
Resistant	-10.9545
▁historical	-10.9545
▁copolymer	-10.9549
glucanase	-10.9549
RL	-10.9552
OL	-10.9552
▁fibers	-10.9557
stitution	-10.9557
▁minerals	-10.9558
▁freezing	-10.956
▁recover	-10.9562
▁BM	-10.9564
chol	-10.9569
▁spectral	-10.957
▁nM	-10.9572
rio	-10.9582
▁transplant	-10.9583
▁recruited	-10.9589
▁circuit	-10.959
▁producer	-10.9591
population	-10.9592
▁radicals	-10.9594
The	-10.9595
▁sensory	-10.9604
▁illness	-10.9606
▁vectors	-10.961
peptides	-10.961
▁ERF	-10.9614
▁ABI	-10.9615
net	-10.9616
phage	-10.9617
▁quenching	-10.9621
▁mon	-10.9622
▁analogs	-10.9627
▁triggering	-10.9628
dent	-10.9629
▁modelling	-10.963
▁(30	-10.9631
glucan	-10.9632
▁FT	-10.9635
▁Association	-10.9636
▁propagation	-10.9636
▁SW	-10.9638
▁validate	-10.9642
UN	-10.9642
magnet	-10.9643
inia	-10.9651
▁millet	-10.9652
▁wetlands	-10.9653
▁urease	-10.9654
etin	-10.9657
hor	-10.9657
ethanolamine	-10.9658
rh	-10.9659
▁hydrolase	-10.966
▁pumps	-10.9661
▁glyphosate	-10.9666
▁HE	-10.9668
▁Subsequently	-10.9671
▁continuously	-10.9672
300	-10.9672
▁insufficient	-10.9674
amic	-10.9674
▁differentiated	-10.9674
▁differently	-10.9677
▁hyphal	-10.9681
▁retinal	-10.9684
▁lake	-10.9694
▁Ralstonia	-10.9696
▁catheter	-10.9696
▁canopy	-10.9696
▁metagenome	-10.9698
5),	-10.9699
▁bioinformatics	-10.97
▁heterocyst	-10.9705
cp	-10.9706
word	-10.9706
▁libraries	-10.9712
▁prescription	-10.9712
▁adipose	-10.9712
▁eukaryotes	-10.9712
▁multivariate	-10.9712
▁Pseudo	-10.9713
bHLH	-10.9714
wi	-10.9716
fish	-10.9716
▁frame	-10.9718
SU	-10.9722
▁cancers	-10.9723
rb	-10.9726
▁Mexico	-10.9727
▁spleen	-10.9727
▁DD	-10.9727
habiting	-10.9728
▁acquire	-10.9728
ifer	-10.9731
▁qualitative	-10.9731
▁SB	-10.9732
omy	-10.9735
▁tightly	-10.9735
▁expanded	-10.9738
▁building	-10.9742
▁PK	-10.9745
▁Single	-10.9748
GI	-10.9749
▁archaea	-10.9751
▁drainage	-10.9758
▁humidity	-10.9758
▁wt	-10.9759
▁Brazilian	-10.9759
▁2013	-10.9759
▁nanoparticle	-10.9764
ava	-10.9772
▁direction	-10.9772
▁lysine	-10.9773
▁check	-10.9773
▁orchid	-10.9773
▁AL	-10.9773
2.0	-10.9774
▁distributions	-10.9775
rec	-10.9781
▁RNAi	-10.9782
▁95	-10.9783
▁multifunctional	-10.9783
▁Fo	-10.9783
▁UGT	-10.9786
▁focuse	-10.9786
▁Frankia	-10.9788
▁floods	-10.9788
▁immobilized	-10.9791
modified	-10.9793
▁actively	-10.9793
acting	-10.9794
▁receive	-10.9794
▁primers	-10.9795
▁gen	-10.9797
▁Oil	-10.9802
▁infiltration	-10.9802
▁nasal	-10.9804
▁pregnant	-10.9805
▁determinant	-10.981
omonas	-10.9817
▁8-	-10.9825
▁66	-10.9825
▁mix	-10.9826
▁house	-10.9833
▁moderately	-10.9834
▁vol	-10.9834
▁exists	-10.9834
flex	-10.9836
▁AMP	-10.984
▁(19	-10.9842
▁augment	-10.9845
last	-10.9846
vel	-10.9847
7.5	-10.9849
▁household	-10.985
▁questionnaire	-10.985
▁science	-10.985
▁taking	-10.985
▁Risk	-10.985
▁chickens	-10.9853
▁(16	-10.9853
TEM	-10.9857
▁inhabit	-10.9861
▁manganese	-10.9865
▁opportunity	-10.9865
▁tumefaciens	-10.9865
▁vulnerable	-10.9865
▁preferred	-10.9867
zone	-10.9868
▁Chrom	-10.9868
▁assayed	-10.9868
▁phytotoxicity	-10.9868
▁country	-10.9868
GFP	-10.9873
tia	-10.9875
Rs	-10.9877
▁Metabolism	-10.9881
▁cooperation	-10.9882
3).	-10.9883
fluor	-10.9885
▁preferentially	-10.9887
obacterium	-10.9887
▁continued	-10.9894
▁machine	-10.9895
▁lichen	-10.9896
ato	-10.9896
▁aquaculture	-10.9896
▁paradigm	-10.9896
▁shrimp	-10.9896
▁Blood	-10.9896
tax	-10.9898
▁polyphenols	-10.9898
▁somatic	-10.9898
▁ameliorate	-10.9904
▁ancient	-10.9907
▁Ten	-10.9909
▁Systemic	-10.9911
▁restore	-10.9912
▁Field	-10.9912
▁dendritic	-10.9912
▁clustering	-10.9913
▁Altogether	-10.9927
▁incognita	-10.9927
▁copies	-10.9927
▁adopted	-10.9928
ASE	-10.9936
▁(13	-10.9941
rog	-10.9941
guided	-10.9944
▁El	-10.9948
butyric	-10.9951
BG	-10.9952
▁uncover	-10.9954
▁cystic	-10.9955
▁reactivity	-10.9956
▁LAB	-10.9957
▁intravenous	-10.9959
▁Gamma	-10.9959
▁true	-10.9959
diversity	-10.996
▁replacement	-10.9961
▁polycyclic	-10.9961
beneficial	-10.9963
▁clades	-10.9965
▁opening	-10.9966
ah	-10.9967
azol	-10.9972
mine	-10.9973
▁abscess	-10.9974
▁vast	-10.9978
most	-10.9982
cript	-10.9989
uca	-10.9991
Re	-10.9993
pore	-10.9999
▁val	-11
▁connection	-11.0001
▁prostate	-11.0004
▁instrument	-11.0006
▁neural	-11.0006
▁chromosomal	-11.0006
▁portion	-11.0006
10,	-11.0006
leguminous	-11.001
▁attempt	-11.001
els	-11.0012
▁WS	-11.0014
▁disturbance	-11.0015
▁Eight	-11.0016
▁intense	-11.0022
▁speed	-11.0022
quin	-11.0024
▁Lead	-11.0027
▁dominance	-11.003
▁readily	-11.0037
▁mutualism	-11.0038
▁Crop	-11.0039
▁Even	-11.004
Ph	-11.004
OG	-11.004
ship	-11.0041
4/	-11.0042
▁muc	-11.0042
▁CW	-11.0043
▁2%	-11.0047
UF	-11.0048
IG	-11.0051
ental	-11.0052
▁Japan	-11.0053
▁obligate	-11.0053
▁che	-11.0056
▁regular	-11.0057
CSF	-11.0058
Ox	-11.0063
▁grazing	-11.0069
▁maltophilia	-11.0069
▁cavity	-11.0069
uro	-11.0069
▁HCC	-11.0079
▁tube	-11.008
▁partner	-11.0082
▁Glu	-11.0082
▁retain	-11.0084
▁exploring	-11.0085
▁histological	-11.0085
▁4,	-11.009
tumor	-11.01
▁correlate	-11.0102
KP	-11.0105
▁effort	-11.0111
cia	-11.0112
▁Anabaena	-11.0116
▁lactate	-11.0116
▁acidification	-11.0118
▁attracted	-11.0119
▁elicitor	-11.012
▁injected	-11.0121
▁predicting	-11.0126
AV	-11.013
▁devastating	-11.0132
▁Biosynthesis	-11.0133
iber	-11.0136
▁sw	-11.014
alin	-11.014
▁ent	-11.0141
▁ob	-11.0141
para	-11.0143
▁leaching	-11.0144
nose	-11.0145
▁Pp	-11.0146
uria	-11.0146
▁facultative	-11.0148
▁penicillin	-11.0148
▁Acidobacteria	-11.0148
▁citrate	-11.0149
▁chlor	-11.015
▁postoperative	-11.0151
priming	-11.0154
odes	-11.0154
▁angle	-11.0155
PU	-11.0157
▁SH	-11.016
▁coated	-11.0161
▁intercropping	-11.0164
▁finger	-11.0165
▁signatures	-11.0165
2+,	-11.0166
depth	-11.017
▁hazard	-11.0173
ovirus	-11.0177
rob	-11.0179
ek	-11.018
▁Arthrobacter	-11.018
▁phthalate	-11.018
▁PCC	-11.0182
▁drying	-11.0182
set	-11.0183
▁clay	-11.0184
▁epidemic	-11.0196
▁eventually	-11.0196
mato	-11.0197
▁estimation	-11.02
▁discover	-11.0201
▁ranges	-11.0202
▁vaccinated	-11.0203
mission	-11.0207
rib	-11.0207
2.2	-11.0208
▁former	-11.0212
▁remodeling	-11.0212
viral	-11.0218
1.3	-11.022
plastic	-11.0222
▁suppresse	-11.0223
lon	-11.0229
▁island	-11.023
bromo	-11.0232
▁planting	-11.0237
▁63	-11.0237
▁uniform	-11.0241
▁finally	-11.0241
▁Flu	-11.0241
▁microarray	-11.0244
lit	-11.0245
-1).	-11.0246
▁mediators	-11.025
DG	-11.0253
▁initiate	-11.0256
▁Metabolites	-11.026
▁epidemiological	-11.0261
▁AK	-11.0261
▁silicon	-11.0263
▁weights	-11.0266
studied	-11.0267
▁Ethylene	-11.0267
▁improvements	-11.0268
▁tet	-11.0272
cyclic	-11.0274
▁Direct	-11.0277
▁dam	-11.0277
▁Rhizobacteria	-11.028
▁Function	-11.0281
▁cows	-11.0281
▁lipase	-11.0284
▁mineralization	-11.0288
▁Comp	-11.0289
invasive	-11.0292
▁thuringiensis	-11.0293
▁mosaic	-11.0293
▁exception	-11.0296
▁hepatocytes	-11.0296
10-	-11.03
▁synergistically	-11.03
sorption	-11.0305
▁MK	-11.0307
onin	-11.0308
▁Clostridium	-11.0309
▁requirement	-11.031
▁hypersensitive	-11.0312
wood	-11.0316
▁ionization	-11.0317
10)	-11.0318
▁conjugate	-11.0321
▁copy	-11.0322
▁85	-11.0325
▁Experimental	-11.0325
▁ED	-11.0327
▁relies	-11.0329
plast	-11.033
8.5	-11.0332
not	-11.0334
▁oxy	-11.0337
▁attenuation	-11.0341
▁cuticle	-11.0341
▁mammals	-11.0341
▁Mu	-11.0343
system	-11.0346
▁NAD	-11.0347
ilo	-11.0356
▁Cadmium	-11.0357
▁Defense	-11.0357
▁frequencies	-11.0357
▁circadian	-11.0358
▁Pl	-11.0359
mate	-11.036
▁desorption	-11.036
▁hy	-11.0362
▁Red	-11.0362
▁phenyl	-11.0363
▁ja	-11.0363
-5-	-11.0364
▁hospitals	-11.0366
▁polyphenol	-11.0369
▁purposes	-11.037
▁rose	-11.0376
emb	-11.0377
nitrogen	-11.0379
▁fla	-11.0383
solubilizing	-11.0384
▁algorithm	-11.0388
▁undertaken	-11.039
▁adsorbent	-11.0391
▁59	-11.0391
▁linkage	-11.0392
▁chains	-11.0399
▁interactive	-11.04
▁East	-11.0402
▁Myco	-11.0403
▁NE	-11.0403
▁kinds	-11.0404
▁agonist	-11.0404
▁oomycete	-11.0405
▁RD	-11.0405
▁juncea	-11.0406
▁earthworm	-11.0407
▁reconstruction	-11.0409
▁shell	-11.0409
alcoholic	-11.041
▁meal	-11.0416
PAL	-11.0418
1.6	-11.042
▁school	-11.0423
▁Formation	-11.0423
uff	-11.0424
▁replicate	-11.0426
avi	-11.0427
▁HIF	-11.0427
▁pectin	-11.0428
▁circ	-11.0433
▁particulate	-11.0439
▁increment	-11.0439
▁5.0	-11.0444
▁initiated	-11.0446
crystal	-11.0447
ATPase	-11.0449
▁stomata	-11.0449
1.7	-11.0451
▁elemental	-11.0452
▁equilibrium	-11.0456
▁equation	-11.0456
▁hydrolytic	-11.0456
pira	-11.0458
emp	-11.0464
▁damaged	-11.0464
jo	-11.0465
MeJA	-11.0465
▁connected	-11.0469
▁altitude	-11.0473
polar	-11.0475
oxidizing	-11.048
hex	-11.0481
▁stressful	-11.0483
types	-11.0487
Si	-11.049
▁TiO	-11.0491
photo	-11.0492
2.4	-11.0492
▁disrupted	-11.0494
▁records	-11.0505
▁symptom	-11.0505
▁inflammasome	-11.0505
▁megaterium	-11.0505
▁bacterio	-11.0505
▁Carbon	-11.0505
▁coll	-11.0505
▁Nodule	-11.0505
▁resident	-11.0505
▁Yet	-11.0506
fungal	-11.0508
▁alkali	-11.0509
▁Ste	-11.0516
odi	-11.0516
▁counter	-11.0517
WD	-11.0518
itch	-11.0519
▁record	-11.0521
▁establishing	-11.0522
▁Cross	-11.0522
▁phytoplankton	-11.0522
▁reaching	-11.0523
▁pod	-11.0525
spora	-11.0526
▁Abiotic	-11.0529
-6-	-11.0529
ifera	-11.053
▁overload	-11.0532
posing	-11.0533
▁faba	-11.0536
6),	-11.054
▁fu	-11.0541
▁distal	-11.0541
ferri	-11.0542
▁constraints	-11.0544
▁carry	-11.0546
2.5%	-11.0546
polymer	-11.0549
▁tra	-11.0551
▁transmitted	-11.0552
▁removing	-11.0555
▁conjugation	-11.0555
▁child	-11.0555
(2-	-11.0557
lux	-11.0559
▁(0.1	-11.056
▁Hyper	-11.0561
gas	-11.057
▁sector	-11.0571
▁Auto	-11.0573
phor	-11.0575
▁mental	-11.0577
FL	-11.0579
▁PAO	-11.058
▁Tra	-11.058
▁sorption	-11.0581
▁blocked	-11.0584
▁rep	-11.0584
catalyzed	-11.0584
▁chlororaphis	-11.0588
▁mellitus	-11.0588
▁datasets	-11.0592
mark	-11.0592
▁AMR	-11.0595
▁u	-11.0597
▁arginine	-11.0598
organic	-11.06
▁%),	-11.0601
ambi	-11.0609
▁<=	-11.0609
▁topic	-11.061
▁Regulate	-11.061
chrome	-11.0619
▁detecting	-11.0619
▁examples	-11.062
nf	-11.0625
▁mer	-11.0626
lines	-11.0629
▁unexpected	-11.0638
1-2	-11.0638
▁NS	-11.0648
▁infusion	-11.0649
lam	-11.0651
▁Light	-11.0654
▁Dynamic	-11.0655
▁mycelium	-11.0655
▁pandemic	-11.0655
▁sought	-11.0655
▁microsomes	-11.0656
chemistry	-11.0659
LM	-11.066
▁motor	-11.0663
mber	-11.0665
rag	-11.0666
▁splicing	-11.0672
▁Complex	-11.0672
2.3	-11.0673
▁dogs	-11.0673
▁render	-11.0675
▁immediate	-11.0677
otrophic	-11.0677
Upon	-11.0678
effect	-11.0679
sym	-11.0683
ators	-11.0684
trophy	-11.0685
▁plates	-11.0686
ffer	-11.0688
▁desiccation	-11.0688
▁photosystem	-11.0689
▁indication	-11.0691
▁Time	-11.0693
FB	-11.0699
▁ka	-11.0701
▁bassiana	-11.0705
▁nervous	-11.0705
▁skeletal	-11.0705
▁belowground	-11.0706
▁pilot	-11.0706
▁AI	-11.0706
▁Biochemical	-11.0709
▁citr	-11.0711
Promoting	-11.0714
▁Climate	-11.0722
▁termed	-11.0727
entomopathogenic	-11.0727
▁off	-11.0729
▁EF	-11.0729
aut	-11.0729
gia	-11.0731
pet	-11.0733
▁Vir	-11.0737
▁hydroxy	-11.0738
▁acdS	-11.0739
▁observe	-11.0742
▁eye	-11.0743
▁compartment	-11.0744
▁Com	-11.0747
Brassica	-11.0748
uric	-11.0749
NV	-11.0753
▁DP	-11.0753
▁brassinosteroid	-11.0756
▁international	-11.0756
▁dermato	-11.0757
organ	-11.0758
▁graft	-11.0759
▁MO	-11.076
▁inducers	-11.0761
▁continu	-11.0765
GMP	-11.0765
mA	-11.0766
▁sym	-11.0767
▁slight	-11.0768
▁approved	-11.0771
▁prescribing	-11.0773
▁Ent	-11.078
▁overexpressed	-11.0781
▁OH	-11.0783
1.8	-11.0784
▁genetics	-11.0784
illi	-11.0785
0.00	-11.0786
▁Properties	-11.079
▁divergent	-11.079
▁stabilization	-11.0791
vert	-11.0791
▁Siderophore	-11.0794
▁thiol	-11.08
▁react	-11.0801
▁(11	-11.0802
▁reticulum	-11.0807
sca	-11.0808
▁dimer	-11.0811
PBB	-11.0811
vol	-11.0819
▁homolog	-11.082
enic	-11.0822
▁harm	-11.0823
▁rodent	-11.0826
zi	-11.083
mot	-11.083
▁asymptomatic	-11.0834
▁Rhizobia	-11.0838
▁Performance	-11.0841
▁Listeria	-11.0841
▁appearance	-11.0842
▁57	-11.0843
▁lay	-11.0846
▁interferon	-11.0846
▁closest	-11.0847
elia	-11.0849
ese	-11.085
▁61	-11.085
primed	-11.0851
▁suppressive	-11.0854
▁additives	-11.0856
label	-11.0856
▁personal	-11.0856
▁SNPs	-11.0857
▁Complete	-11.0858
▁Green	-11.0858
trop	-11.086
▁cytosolic	-11.0862
▁Alzheimer	-11.0862
bout	-11.0864
arid	-11.0865
sequencing	-11.0868
electric	-11.0868
▁marginal	-11.0868
▁allo	-11.0872
▁aggregates	-11.0875
hole	-11.0875
▁sigma	-11.0875
▁leukemia	-11.0875
▁LD	-11.0886
kill	-11.0888
rub	-11.089
iol	-11.0891
▁Thirty	-11.0892
▁Ensifer	-11.0892
▁cheese	-11.0892
▁abnormalities	-11.0893
knot	-11.0894
▁DW	-11.0895
▁Specific	-11.0898
1.4	-11.0898
▁trophic	-11.0905
▁Receptor	-11.0909
▁Predict	-11.091
▁salts	-11.0911
▁programme	-11.0918
▁TH	-11.0918
oil	-11.0919
7.4	-11.0923
elli	-11.0925
dh	-11.0927
▁unexplored	-11.0927
▁Earth	-11.0927
▁tomography	-11.0927
▁clover	-11.0928
▁MCF	-11.0929
▁herbal	-11.0929
▁vit	-11.093
▁2.2	-11.0933
susceptible	-11.0937
process	-11.0937
protection	-11.0939
▁recombination	-11.0944
▁trehalose	-11.0944
▁Pr	-11.0944
▁authors	-11.0946
▁prescribed	-11.0948
▁buds	-11.0949
▁augmented	-11.0949
▁discusses	-11.0951
▁branching	-11.0952
▁referred	-11.0955
▁repress	-11.0956
▁Transcriptional	-11.0957
▁DO	-11.0958
▁gibberelli	-11.0958
leaf	-11.0958
▁Tissue	-11.0961
▁matrices	-11.0961
▁shelf	-11.0961
▁intercellular	-11.0963
ogram	-11.097
▁pass	-11.0978
▁cumulative	-11.0978
▁dwarf	-11.0978
▁keratin	-11.0982
benzyl	-11.0982
▁Met	-11.0983
▁attract	-11.0984
▁importantly	-11.0986
▁parasitoid	-11.0987
length	-11.0989
▁Ri	-11.0992
dL	-11.0994
Paraburkholderia	-11.0996
▁Differences	-11.0996
▁cloacae	-11.0996
▁easy	-11.0996
+)	-11.0996
natal	-11.0997
ade	-11.0997
▁combine	-11.1
▁locally	-11.1002
▁Da	-11.1005
opolysaccharides	-11.1007
50%	-11.1007
▁Intra	-11.101
▁vinifera	-11.1013
▁LT	-11.1014
▁concurrent	-11.1014
▁va	-11.1015
▁drop	-11.1017
▁OM	-11.1018
▁perceived	-11.1018
▁displays	-11.1019
eus	-11.102
▁bioassay	-11.102
▁immunosuppress	-11.1021
▁ascorbic	-11.1022
viruses	-11.1023
9.0	-11.1028
▁tyrosine	-11.1029
▁electric	-11.103
▁fibroblasts	-11.103
▁Surface	-11.103
▁benthamiana	-11.103
▁desirable	-11.103
▁bed	-11.1033
▁+/-	-11.1037
▁bonds	-11.1037
▁oxidized	-11.1039
▁see	-11.1047
▁kernel	-11.1048
▁mitigating	-11.1048
NK	-11.1057
▁weed	-11.1061
▁atomic	-11.1064
▁applicable	-11.1065
▁biomedical	-11.1065
▁prophylaxis	-11.1065
▁distant	-11.1066
▁district	-11.1067
transcriptional	-11.1067
▁Chlor	-11.1072
▁exploitation	-11.1073
fecting	-11.1074
▁uro	-11.1078
▁assisted	-11.1078
▁orders	-11.1079
▁78	-11.1083
▁Communities	-11.1083
expressing	-11.1086
▁2000	-11.1086
sch	-11.109
▁mill	-11.1093
ami	-11.1096
▁contributor	-11.11
▁surfactin	-11.11
▁huge	-11.11
▁micronutrient	-11.1102
▁lytic	-11.1102
▁OP	-11.1104
▁integrate	-11.1104
▁solar	-11.1109
▁therapeutics	-11.1111
enriched	-11.1112
cysteine	-11.1112
lab	-11.1113
▁performing	-11.1113
▁Au	-11.1113
▁SNP	-11.1114
▁Surprisingly	-11.1118
▁longitudinal	-11.1118
▁neoformans	-11.1118
▁Population	-11.1118
anthus	-11.1121
▁Halo	-11.1124
▁AG	-11.1126
▁TFs	-11.1128
▁articles	-11.1129
reducing	-11.1131
▁2012	-11.1132
diol	-11.1132
▁south	-11.1135
▁Culture	-11.1135
▁NLRP	-11.1136
▁supplied	-11.1136
▁nosocomial	-11.1136
▁Island	-11.1137
▁antigens	-11.114
▁deeper	-11.1141
▁worse	-11.1144
▁composting	-11.1146
▁intervals	-11.1146
50)	-11.1147
▁flooded	-11.1148
▁Mice	-11.1151
▁moiety	-11.1153
ites	-11.1157
▁NAFLD	-11.1169
▁dimethyl	-11.1169
▁mushroom	-11.1171
▁recurrence	-11.1171
▁Aux	-11.1171
▁alternata	-11.1171
iron	-11.1172
icular	-11.1172
▁rural	-11.1173
▁diatom	-11.1173
philic	-11.1176
▁dinitrogen	-11.1178
synthetic	-11.1179
▁PIN	-11.1179
▁cure	-11.1181
class	-11.1183
domain	-11.1184
▁Lact	-11.1185
▁(0,	-11.1187
▁aryl	-11.1187
▁Lys	-11.119
▁summarized	-11.1193
lock	-11.1196
▁105	-11.1201
ols	-11.1205
▁His	-11.1206
▁Beta	-11.1207
mul	-11.1208
▁characterised	-11.1212
▁standardized	-11.1215
▁aggressive	-11.1224
▁peel	-11.1224
▁ovarian	-11.1224
▁shade	-11.1225
VC	-11.1227
▁separately	-11.1227
MDR	-11.1228
Ma	-11.123
▁Cap	-11.1232
shoot	-11.1237
(-1))	-11.1241
▁superfamily	-11.1242
inase	-11.1242
▁relapse	-11.1243
aceous	-11.1244
▁exact	-11.1246
tach	-11.125
▁3.0	-11.1256
▁gingival	-11.1257
▁endocrine	-11.126
▁Indeed	-11.126
▁Microbacterium	-11.126
▁albumin	-11.1262
NMR	-11.1266
▁glutamine	-11.1269
▁preventive	-11.1273
▁fructose	-11.1277
▁students	-11.1277
extr	-11.1278
At	-11.1281
homoserine	-11.1283
imi	-11.1283
▁similarly	-11.1283
▁(14	-11.1287
atom	-11.1288
▁add	-11.129
wall	-11.1292
▁May	-11.1292
▁Design	-11.1296
ko	-11.1297
▁ingredients	-11.13
ham	-11.1308
▁comprises	-11.131
5.6	-11.1312
▁coronavirus	-11.1313
▁scheme	-11.1313
▁admission	-11.1313
osine	-11.1315
▁colitis	-11.1318
▁diseased	-11.1325
0.1	-11.1326
▁cortical	-11.1331
▁microscope	-11.1331
▁aluminum	-11.1331
▁Iso	-11.1336
aster	-11.1336
▁Temperature	-11.1337
▁introduce	-11.1337
▁molybdenum	-11.1341
▁AZ	-11.1341
lite	-11.1343
-23	-11.1343
cocci	-11.1348
▁matched	-11.1348
▁alkyl	-11.1359
▁rank	-11.1362
▁serves	-11.1366
▁Epichloe	-11.1367
▁pathology	-11.1368
▁abolished	-11.1372
▁dia	-11.1376
▁62	-11.1381
inducing	-11.1383
▁technical	-11.1385
▁standards	-11.1385
▁cryo	-11.1386
▁98	-11.1389
▁arise	-11.1391
▁3.5	-11.1395
▁night	-11.1396
TX	-11.1399
▁reinforce	-11.1403
▁nanomaterials	-11.1403
▁lowered	-11.1406
▁1.9	-11.1408
UL	-11.1409
▁Investigation	-11.1409
▁tip	-11.1412
▁contaminant	-11.1415
101	-11.1416
POD	-11.1418
▁Asian	-11.1419
▁assemblages	-11.142
▁juice	-11.1421
▁preservation	-11.1421
▁Improve	-11.1423
chin	-11.1423
▁strengthen	-11.1424
▁mutual	-11.1427
coated	-11.1429
▁polymorphisms	-11.1432
▁cation	-11.1433
(3)	-11.1434
UP	-11.1434
nucleotide	-11.1435
density	-11.1435
▁eyes	-11.1436
▁routes	-11.1436
delta	-11.1437
EI	-11.1439
▁fracture	-11.1439
▁policy	-11.1439
regulatory	-11.144
▁dissemination	-11.1441
▁esters	-11.1443
▁hypothesize	-11.1444
eck	-11.1445
▁parents	-11.1447
▁lipopeptides	-11.1449
▁Phe	-11.1451
ethanol	-11.1451
▁FTIR	-11.1456
▁vigor	-11.1457
▁Helicobacter	-11.1457
▁besides	-11.1458
▁(18	-11.1459
▁Pf	-11.1461
amo	-11.1471
virulent	-11.1472
Hg	-11.1472
▁moss	-11.1473
▁knock	-11.1475
▁ryegrass	-11.1475
▁MICs	-11.1476
▁extension	-11.1476
▁crown	-11.1476
iod	-11.1477
syn	-11.1478
▁acetylene	-11.1478
▁swine	-11.1478
600	-11.1479
5.8	-11.148
expressed	-11.1485
PbB	-11.1486
▁Ec	-11.1487
▁modules	-11.1487
▁idea	-11.1491
▁apo	-11.1492
▁bearing	-11.1493
▁harbour	-11.1494
▁Rapid	-11.1495
gram	-11.1497
▁canonical	-11.1502
yph	-11.1504
▁TGF	-11.1504
phospho	-11.1506
doped	-11.1507
▁81	-11.1508
▁(0.5	-11.151
▁Materials	-11.1511
▁guard	-11.1512
▁plantlets	-11.1513
▁Trial	-11.1517
lia	-11.1519
ein	-11.1522
▁Variation	-11.1526
▁quantities	-11.153
▁twice	-11.153
▁artery	-11.153
▁decipher	-11.153
▁ni	-11.1531
nod	-11.1534
▁Pacific	-11.1548
12,	-11.1552
▁76	-11.1554
bra	-11.1557
▁interacted	-11.1559
iform	-11.1562
120	-11.1565
oxidase	-11.1565
▁constitutively	-11.1566
▁table	-11.1569
opr	-11.157
▁hemo	-11.1579
▁adjusted	-11.1581
SW	-11.1582
mono	-11.1584
▁Metarhizium	-11.1585
▁envelope	-11.1585
▁gloeosporioides	-11.1585
▁identifies	-11.1585
▁SK	-11.1585
▁never	-11.1588
▁77	-11.1593
eptic	-11.1597
verse	-11.1601
▁afford	-11.1604
▁vinelandii	-11.1604
▁Elevat	-11.1604
▁endoplasmic	-11.1604
▁oilseed	-11.1605
▁interfer	-11.1606
▁lesser	-11.1606
▁attached	-11.1607
▁prebiotic	-11.1608
choline	-11.1608
▁formulated	-11.1608
▁harbored	-11.1608
nata	-11.1609
ona	-11.1611
▁Effective	-11.1612
▁proportions	-11.1613
▁Cyto	-11.1617
▁Lip	-11.1617
-30	-11.162
glucoside	-11.1622
▁Antarctic	-11.1622
floxacin	-11.1622
▁minutes	-11.1622
▁eth	-11.1623
▁DOM	-11.1623
▁84	-11.1624
▁79	-11.1625
▁gaps	-11.1625
▁responding	-11.1626
▁Phy	-11.1627
sen	-11.1627
▁HP	-11.1628
▁exclusion	-11.1631
erm	-11.1632
▁regimen	-11.1632
▁chrom	-11.1632
4.5	-11.1635
terpene	-11.1637
▁repertoire	-11.1641
▁basin	-11.1643
▁reasons	-11.1647
▁prove	-11.1649
Glycine	-11.1656
▁vapor	-11.166
▁gender	-11.1661
▁fit	-11.1662
elo	-11.1663
linear	-11.1667
▁BL	-11.1669
take	-11.1672
▁priority	-11.1672
▁conferr	-11.1672
rhizosphere	-11.1672
▁broadly	-11.1673
▁apoptotic	-11.1676
▁metastasis	-11.1678
▁vulnerability	-11.1678
▁Explor	-11.1678
▁Rhodococcus	-11.1678
solid	-11.1678
▁Seven	-11.1679
▁Ka	-11.1684
▁massive	-11.1686
▁PSII	-11.1687
▁converted	-11.1691
▁myo	-11.1693
▁xenobiotic	-11.1694
▁cervical	-11.1696
anol	-11.1698
▁Mono	-11.1698
▁quinone	-11.1698
▁quickly	-11.1702
▁fr	-11.1708
▁ineffective	-11.1708
▁follows	-11.1709
▁version	-11.1709
▁ice	-11.1711
dio	-11.1712
▁106	-11.1716
▁0.001).	-11.1717
TN	-11.1724
▁immediately	-11.1727
▁harboring	-11.173
▁Jasmon	-11.173
▁lipo	-11.173
▁signature	-11.1732
▁fluoride	-11.1733
▁shrub	-11.1734
▁USDA	-11.1735
element	-11.1735
▁Yeast	-11.1736
▁ND	-11.1736
▁ELISA	-11.1737
▁lakes	-11.174
rn	-11.1745
▁phenanthrene	-11.1746
body	-11.1748
▁TCS	-11.1749
acetate	-11.175
▁pools	-11.175
▁Pathway	-11.1751
▁Acanthamoeba	-11.1752
▁epidermidis	-11.1752
▁Scanning	-11.1752
▁MAIN	-11.1754
110	-11.176
▁EB	-11.1763
▁subunits	-11.1763
▁donors	-11.1763
opt	-11.1766
▁mel	-11.1768
▁Acute	-11.1771
▁correlates	-11.1779
uring	-11.1779
▁FM	-11.1779
phore	-11.1782
-3,	-11.1784
▁mucosa	-11.1784
ylated	-11.1788
▁Pythium	-11.179
▁themselves	-11.179
▁immunological	-11.1791
HF	-11.1791
NOS	-11.1792
ITS	-11.1795
▁uncovered	-11.1796
FF	-11.1796
1%),	-11.1798
olo	-11.18
▁Real	-11.1806
▁MM	-11.1806
rhizobium	-11.1807
sulfur	-11.1807
▁Ly	-11.1807
UB	-11.1807
▁feces	-11.1808
▁Next	-11.1809
▁distinctive	-11.181
▁biosorption	-11.1812
▁Levels	-11.1814
▁branches	-11.1814
phylogenetically	-11.1815
color	-11.1817
transferases	-11.1818
▁track	-11.1819
▁cre	-11.1819
AHL	-11.1827
▁Major	-11.1827
▁Analyses	-11.1827
▁swelling	-11.1827
▁TE	-11.1828
▁Insect	-11.1829
SG	-11.1835
▁67	-11.1839
▁adversely	-11.1842
Br	-11.1845
▁tabacum	-11.1846
▁Proteomic	-11.1846
▁alkaloid	-11.1846
▁glycolysis	-11.1846
▁raise	-11.1852
▁2010	-11.1852
▁Previously	-11.1853
▁BPA	-11.1857
▁Integrat	-11.1859
carbon	-11.1861
▁progressive	-11.1861
▁7.0	-11.1861
▁absorb	-11.1863
▁Activities	-11.1865
▁December	-11.1865
▁Sequencing	-11.1865
▁anxiety	-11.1865
▁pumilus	-11.1865
▁75%	-11.1865
▁Korea	-11.1875
▁cast	-11.1878
efficient	-11.1878
silenced	-11.1884
▁biodegradable	-11.1884
▁Region	-11.1885
org	-11.1888
▁nucleo	-11.1889
▁Meloidogyne	-11.189
▁psycho	-11.1896
▁gibberellins	-11.1897
▁adopt	-11.1899
▁Management	-11.1903
▁Phosphate	-11.1903
▁emergency	-11.1903
▁sporulation	-11.1903
▁Cryptococcus	-11.1903
▁104	-11.1904
▁exposures	-11.1905
▁phytochemical	-11.1906
▁caries	-11.1909
Sp	-11.1914
iella	-11.1917
▁Phenotypic	-11.1922
▁Virulence	-11.1922
▁competing	-11.1922
▁monooxygenase	-11.1923
▁bioassays	-11.1933
BV	-11.1936
ific	-11.1938
7.6	-11.1941
enia	-11.1942
▁Transgenic	-11.1942
5.0	-11.195
▁Bra	-11.1952
▁isoforms	-11.1952
directed	-11.1955
dihydroxy	-11.1958
▁2.7	-11.1959
▁logistic	-11.1961
▁Detection	-11.1961
▁passive	-11.1962
▁Polymer	-11.1962
▁differentiate	-11.1966
▁BCA	-11.1967
▁inocula	-11.1967
encies	-11.197
▁2.3	-11.197
▁cardio	-11.1974
core	-11.1977
▁document	-11.1978
▁curves	-11.1978
▁demographic	-11.1979
▁municipal	-11.1979
▁Science	-11.1979
zhou	-11.1979
▁rumen	-11.198
▁87	-11.1982
seed	-11.1985
▁put	-11.1988
▁LR	-11.199
▁recognize	-11.1994
▁Proteins	-11.1996
▁Neuro	-11.1998
▁colorectal	-11.1999
▁processed	-11.2
threatening	-11.2001
▁NI	-11.2002
▁registered	-11.2003
▁regime	-11.2007
▁reef	-11.2008
cyan	-11.2013
▁penta	-11.2013
▁stimulus	-11.2018
▁digestive	-11.2018
▁trout	-11.2019
▁AHLs	-11.2019
▁pho	-11.2021
▁HF	-11.2029
▁inducer	-11.2029
▁bHLH	-11.2033
graft	-11.2034
▁uni	-11.2035
▁rest	-11.2036
enzymatic	-11.2036
▁overlap	-11.2037
▁AF	-11.2041
▁accurately	-11.2041
▁LB	-11.2044
▁pha	-11.2052
▁blocks	-11.2053
▁Second	-11.2055
molecule	-11.2056
▁precision	-11.2056
▁steady	-11.2056
▁harsh	-11.2056
▁imbalance	-11.2056
toxigenic	-11.2057
▁unaffected	-11.2058
1.9	-11.2061
▁600	-11.2064
▁73	-11.2067
▁poses	-11.207
lean	-11.2071
▁ortholog	-11.2073
phyto	-11.2073
▁phytochemicals	-11.2075
4.7	-11.2075
▁Samples	-11.2075
▁tertiary	-11.2075
002	-11.2077
▁Interaction	-11.2079
aged	-11.2079
omycet	-11.2083
▁mat	-11.2084
▁reservoirs	-11.2088
▁partitioning	-11.209
▁Beneficial	-11.2095
▁japonica	-11.2095
quinoline	-11.2095
▁circulation	-11.2095
▁Free	-11.2097
7%),	-11.2098
dichloro	-11.21
▁biogenesis	-11.2101
▁complementation	-11.2104
tant	-11.2106
▁hemi	-11.2112
▁residents	-11.2114
▁why	-11.2117
▁sep	-11.2121
FU	-11.2127
▁lin	-11.213
gui	-11.2131
▁CKD	-11.2133
▁Approach	-11.2134
▁Metabolomic	-11.2134
▁inherent	-11.2134
▁Southern	-11.2135
103	-11.2136
mut	-11.2137
▁regimens	-11.2137
▁POD	-11.2138
del	-11.2139
▁relatedness	-11.2145
▁osteo	-11.2153
affinity	-11.2153
▁interspecific	-11.2154
▁Small	-11.2155
ify	-11.2156
ENT	-11.2157
read	-11.2159
MW	-11.216
▁leg	-11.2162
▁instance	-11.2164
ophilus	-11.2164
reactive	-11.217
NPR	-11.2172
▁Herbaspirillum	-11.2172
▁bowel	-11.2172
▁unigenes	-11.2173
▁hazardous	-11.2175
▁polymerization	-11.2178
plankton	-11.2183
OPDA	-11.2184
met	-11.2186
▁ortho	-11.2189
▁encapsulation	-11.219
▁lncRNAs	-11.2191
▁childhood	-11.2192
▁contrary	-11.2192
▁beginning	-11.2192
▁Common	-11.2193
2-1	-11.2195
▁108	-11.2196
▁sl	-11.2196
MAPK	-11.2196
2%),	-11.2198
▁69	-11.2203
tel	-11.2204
LRR	-11.2207
▁conjugated	-11.2208
An	-11.221
▁branch	-11.221
▁biostimulant	-11.2213
▁PAL	-11.2215
▁tips	-11.2218
▁Extract	-11.222
GG	-11.222
selective	-11.2224
SY	-11.2225
▁come	-11.2231
▁smoking	-11.2231
▁Oryza	-11.2234
▁micromol	-11.2236
▁Marine	-11.2237
toria	-11.2238
▁Vari	-11.2239
▁quantitatively	-11.2239
▁Improv	-11.224
▁label	-11.2241
TNF	-11.2242
imidazole	-11.2244
▁potentials	-11.2244
▁88	-11.225
▁Trichodesmium	-11.2251
▁maturity	-11.2251
▁Vitis	-11.2252
environment	-11.2258
4).	-11.2261
▁city	-11.2264
PAR	-11.2269
▁estrogen	-11.227
▁Bacterio	-11.2271
cluster	-11.2271
▁Hydrogen	-11.2272
▁preclinical	-11.2272
▁transposon	-11.2273
6.6	-11.2274
▁attain	-11.2275
▁conformation	-11.2276
▁OA	-11.2276
▁4.5	-11.2277
▁cooperative	-11.2278
▁generations	-11.228
pretreated	-11.228
▁IBA	-11.228
▁covered	-11.2282
▁inactive	-11.2283
▁flexible	-11.229
▁prognosis	-11.229
▁tag	-11.2292
▁presenting	-11.2292
AgNPs	-11.2293
▁coast	-11.2298
▁isotherm	-11.2299
▁74	-11.2299
▁threats	-11.23
▁tap	-11.2308
▁melanoma	-11.2311
stimulated	-11.2311
▁responsiveness	-11.2313
▁suite	-11.2317
thia	-11.2318
▁Mel	-11.2321
four	-11.2325
▁deaths	-11.2337
▁equi	-11.2337
genera	-11.2338
▁(<	-11.2342
▁objectives	-11.2342
▁split	-11.2342
▁coatings	-11.2343
▁micelles	-11.2347
▁filament	-11.2348
▁Hb	-11.2349
carboxy	-11.2349
fra	-11.235
▁housekeeping	-11.235
▁capsule	-11.235
tidal	-11.235
▁2.1	-11.2351
▁Pst	-11.2351
▁Activation	-11.2351
▁biosensor	-11.2352
▁2011	-11.2353
place	-11.2354
-22	-11.2355
▁cultivable	-11.2357
▁atoms	-11.2362
NG	-11.2367
▁Primary	-11.237
▁cotyledon	-11.237
▁sativus	-11.237
peptidase	-11.237
coumarin	-11.237
▁platelet	-11.2371
tagged	-11.2371
Bacillus	-11.2371
▁bread	-11.2371
▁Electron	-11.2377
▁Uni	-11.2379
▁LP	-11.2384
▁Children	-11.2389
▁century	-11.2389
▁Fruit	-11.2389
thin	-11.2391
AX	-11.2394
▁composites	-11.2396
ACS	-11.2397
escens	-11.2397
▁cationic	-11.2397
▁mucus	-11.2397
dynamic	-11.2399
▁GT	-11.24
▁transportation	-11.2402
▁blocking	-11.2407
(-)	-11.2408
▁Whereas	-11.2409
▁pear	-11.2411
▁segments	-11.2413
Phytoremediation	-11.2417
▁bloom	-11.2417
edia	-11.242
cyclin	-11.2422
▁zoo	-11.2423
▁(200	-11.2424
▁ancestral	-11.2429
▁cowpea	-11.2429
▁Induction	-11.2429
▁ECM	-11.2432
▁filtration	-11.2433
▁0.0001)	-11.2434
▁ID	-11.2435
income	-11.2438
▁build	-11.2441
cytic	-11.2442
asi	-11.2445
▁(1-	-11.2445
▁acclimat	-11.2446
▁ear	-11.2446
ado	-11.2449
▁asperellum	-11.2449
▁hypotheses	-11.2449
▁Aeromonas	-11.2449
▁enterobactin	-11.245
siderophore	-11.2451
glucose	-11.2451
bearing	-11.2452
▁RH	-11.2453
▁bring	-11.2453
FTIR	-11.2453
cad	-11.2453
▁varies	-11.2454
▁leucine	-11.2455
dip	-11.2456
▁(2-	-11.2457
IO	-11.2463
▁Drosophila	-11.247
▁orchard	-11.247
▁Enzyme	-11.247
▁beads	-11.2473
5.7	-11.2473
▁insoluble	-11.2476
▁encapsulated	-11.2477
▁sulfo	-11.2482
▁mixing	-11.2487
fertilizer	-11.2489
Th	-11.2489
▁86	-11.2489
▁amyloid	-11.249
▁Italy	-11.249
lactic	-11.2494
▁MH	-11.2497
▁Sulf	-11.2502
▁Chemo	-11.2507
rain	-11.2507
▁reli	-11.2508
▁ampicillin	-11.251
▁solute	-11.251
7.2	-11.251
▁3.1	-11.2513
▁Roots	-11.2514
idone	-11.2515
▁shaped	-11.2517
▁tick	-11.2518
pyridine	-11.2518
▁Conditions	-11.252
ISR	-11.2522
▁tau	-11.2522
▁Bac	-11.2529
▁Between	-11.253
▁eradicate	-11.253
▁insecticidal	-11.2532
adapted	-11.2533
▁sections	-11.2541
TFs	-11.2542
▁Sorghum	-11.2542
▁82	-11.2543
▁thyroid	-11.2548
▁Nanoparticles	-11.255
▁campestris	-11.255
▁nicotine	-11.255
▁transmembrane	-11.2551
3.3	-11.2555
▁proinflammatory	-11.2559
▁mitogen	-11.2559
▁(24	-11.2564
▁originated	-11.2565
▁dramatic	-11.2569
▁epithelium	-11.2571
▁requiring	-11.2571
▁unchanged	-11.2571
▁Vitro	-11.2571
▁fabricated	-11.2572
defined	-11.2573
PKS	-11.2584
pneumo	-11.2584
sterol	-11.2585
▁engage	-11.259
▁University	-11.2591
▁prompt	-11.2591
▁pulp	-11.2591
▁callose	-11.2592
ima	-11.2592
▁odds	-11.2593
▁Va	-11.2594
▁interpretation	-11.2597
▁rule	-11.2597
▁verify	-11.2604
3.0	-11.2608
▁analyse	-11.2609
anoic	-11.261
▁tabaci	-11.2611
▁embryonic	-11.2612
AMPs	-11.2622
WS	-11.2626
▁sul	-11.2628
▁translational	-11.2628
▁groundnut	-11.2632
▁homologue	-11.2632
▁necrotrophic	-11.2633
2(	-11.2633
▁rising	-11.2633
only	-11.2638
▁believed	-11.2639
▁assessments	-11.264
▁71	-11.2642
4,5	-11.2643
▁silages	-11.2644
▁Gas	-11.2646
▁ingestion	-11.2652
▁jejuni	-11.2652
▁warm	-11.2653
▁zero	-11.2653
▁hazards	-11.2658
▁advance	-11.266
▁cereals	-11.266
ogic	-11.2661
CPs	-11.2664
▁IM	-11.2665
▁continue	-11.2667
▁Cm	-11.2668
▁try	-11.267
▁amoxicillin	-11.2673
▁facilities	-11.2673
▁sheep	-11.2673
▁predation	-11.2673
▁tritici	-11.2673
▁scan	-11.2673
▁immunotherapy	-11.2674
▁marrow	-11.2674
ophor	-11.268
▁microcosms	-11.2682
▁foodborne	-11.2685
isol	-11.2689
umb	-11.2689
ley	-11.2689
exin	-11.2691
▁competence	-11.2693
▁encompass	-11.2693
▁trafficking	-11.2693
▁cloning	-11.2693
▁tiller	-11.2694
inimum	-11.2694
mug	-11.2694
▁MALDI	-11.2695
integra	-11.2695
▁stereo	-11.2696
rane	-11.2697
▁carcinogenic	-11.2701
vitro	-11.2702
▁nodulating	-11.2704
▁surfactant	-11.2704
▁Mechanism	-11.2705
▁exceeded	-11.2706
▁cultural	-11.2709
▁spatially	-11.2711
700	-11.2713
▁awareness	-11.2714
▁chelate	-11.2715
antibiotic	-11.2718
▁orally	-11.2722
▁parasitism	-11.2725
▁$	-11.2725
▁Arg	-11.2727
isoleucine	-11.2728
alkyl	-11.273
▁obese	-11.2735
consuming	-11.2735
conjugate	-11.2738
▁Serum	-11.2742
▁CG	-11.2746
compatibility	-11.2746
PDT	-11.2747
▁suffer	-11.2748
aemia	-11.2748
DREB	-11.2748
▁distinguished	-11.275
▁Atlantic	-11.2755
▁catabolic	-11.2755
▁malignant	-11.2755
▁reversible	-11.2755
▁Tu	-11.2762
▁solubilized	-11.2763
▁proof	-11.2764
▁Consistent	-11.2764
remediation	-11.2765
3'	-11.2765
▁vein	-11.2768
▁aspect	-11.2768
▁Additional	-11.2772
▁mitigated	-11.2772
lateral	-11.2773
▁nodes	-11.2774
157:	-11.2774
▁Key	-11.2776
▁Bacteroides	-11.2777
▁oligo	-11.2777
scribed	-11.2778
▁front	-11.2788
6%),	-11.2789
▁anoxic	-11.2789
▁AFB	-11.2792
titude	-11.2795
▁pond	-11.2795
▁Essential	-11.2796
▁anatomical	-11.2796
▁MiSeq	-11.2797
▁reading	-11.2799
▁DPPH	-11.2801
▁comprehensively	-11.2802
berry	-11.2804
▁designing	-11.2815
▁Case	-11.2815
present	-11.2818
▁successive	-11.2824
▁enteric	-11.2825
▁stay	-11.2825
▁3%	-11.2828
onium	-11.283
▁Enhance	-11.2831
gress	-11.2832
▁epiphyte	-11.2832
▁vessels	-11.2832
▁situation	-11.2835
▁candidiasis	-11.2838
▁discussion	-11.2839
▁spinach	-11.2839
run	-11.284
▁bioinoculant	-11.2841
▁code	-11.2841
▁predictors	-11.2842
▁phytopathogen	-11.2847
7.8	-11.2849
▁rhythm	-11.2854
LOX	-11.2854
ilia	-11.2856
▁labeled	-11.2859
Capsicum	-11.2859
▁interview	-11.2859
-6,	-11.286
cyt	-11.2861
alo	-11.2862
LDH	-11.2864
▁modifying	-11.2867
dry	-11.2868
▁impair	-11.287
1-3	-11.2872
▁ALA	-11.2874
UM	-11.2877
▁destructive	-11.2879
▁dense	-11.288
▁deprivation	-11.288
▁ultrasound	-11.288
LPS	-11.2881
▁Sch	-11.2881
▁Northern	-11.2881
▁Organization	-11.2881
▁Local	-11.2881
▁cfu	-11.2885
tA	-11.2886
value	-11.2886
▁aroma	-11.2889
▁neurological	-11.2891
▁pharmaceuticals	-11.2892
▁2.4	-11.2899
sensor	-11.29
▁Cluster	-11.2901
virulence	-11.2906
▁cholerae	-11.2907
▁San	-11.2908
▁eliminated	-11.2911
▁colonic	-11.2919
▁Citrus	-11.292
▁FINDINGS	-11.2922
▁suspected	-11.2922
▁tall	-11.2922
▁serovar	-11.2922
/100	-11.2924
typic	-11.2931
▁constitutes	-11.294
▁4.0	-11.2941
▁arthropod	-11.2943
▁nerve	-11.2943
ett	-11.2944
omal	-11.2944
▁potentiate	-11.2947
113	-11.2947
VP	-11.2948
▁ill	-11.2948
▁aortic	-11.295
PIN	-11.2952
ending	-11.2959
▁origins	-11.2959
▁sterol	-11.2962
▁Nine	-11.2963
▁pocket	-11.2964
▁keep	-11.2964
▁oligotrophic	-11.2964
▁Microorganisms	-11.2965
▁Pathogen	-11.2966
▁dosing	-11.2967
war	-11.2968
▁KEGG	-11.297
▁nmol	-11.2974
=1	-11.298
▁fractionation	-11.298
modulator	-11.2984
▁Sha	-11.2985
phytic	-11.2993
5.3	-11.2994
fix	-11.2996
via	-11.2996
infective	-11.2998
▁online	-11.3002
▁text	-11.3005
▁Participants	-11.3006
▁avenue	-11.3006
▁desferrioxamine	-11.3006
▁road	-11.3006
▁Composition	-11.3007
▁organogenesis	-11.3008
▁antagonize	-11.3011
▁EM	-11.3012
cidal	-11.3014
4+-	-11.3015
ANI	-11.302
▁tight	-11.302
thiazol	-11.3023
▁medicines	-11.3023
ethane	-11.3025
carp	-11.3026
▁Are	-11.3027
▁acceptable	-11.3028
▁vertebrate	-11.3028
▁counterparts	-11.3029
▁bat	-11.3032
▁FeMo	-11.3033
▁Lj	-11.3034
hexa	-11.3035
ripe	-11.3036
▁hepato	-11.3041
▁breed	-11.3042
▁aiming	-11.3046
pend	-11.3047
▁subgroup	-11.3049
▁epidemiology	-11.3049
▁bioavailable	-11.3051
▁fluctuations	-11.3052
berg	-11.3056
care	-11.3059
▁Oral	-11.3061
▁Er	-11.3066
AKT	-11.3067
▁Nutrient	-11.307
▁laccase	-11.307
▁AUX	-11.307
▁Go	-11.3071
▁PHB	-11.3075
▁apparently	-11.3076
▁Val	-11.309
dict	-11.3091
▁aerosol	-11.3091
▁stroke	-11.3092
▁inferred	-11.3092
▁Priming	-11.3092
plate	-11.3093
chel	-11.3096
pression	-11.3096
stem	-11.31
6.4	-11.3102
bac	-11.3109
▁[1	-11.3112
▁spider	-11.3113
▁shear	-11.3114
▁Gra	-11.3115
-1,3-	-11.3119
▁details	-11.3124
▁stock	-11.3124
▁covalent	-11.3125
▁explants	-11.3127
▁bZIP	-11.3129
▁forces	-11.3131
▁quite	-11.3132
lata	-11.3133
▁players	-11.3133
rist	-11.3134
Camellia	-11.3134
▁DESIGN	-11.3134
▁Sclerotinia	-11.3134
▁oleracea	-11.3134
pyrrol	-11.3135
▁UK	-11.3137
▁Super	-11.3139
OTUs	-11.3141
▁inoculat	-11.3142
▁consumers	-11.3143
▁replace	-11.3144
▁Alg	-11.3145
4.9	-11.3149
thrin	-11.315
6.8	-11.3152
anna	-11.3154
▁lyase	-11.3155
▁sheath	-11.3156
globin	-11.3156
▁Peptide	-11.3156
▁HepG	-11.3156
▁macrophyte	-11.3157
▁box	-11.3157
▁cha	-11.3158
PET	-11.316
▁pl	-11.3161
549	-11.3164
kary	-11.317
▁CV	-11.3171
KI	-11.3172
▁affiliated	-11.3177
brain	-11.3178
chelin	-11.3178
▁15%	-11.3178
enz	-11.3184
▁2.8	-11.3185
▁searched	-11.3186
▁deposited	-11.3193
accumulation	-11.3194
▁Regarding	-11.3199
▁epidermis	-11.3199
▁junction	-11.3199
▁reagent	-11.3199
▁salicylate	-11.3199
▁enough	-11.32
Chi	-11.3203
▁originat	-11.3204
three	-11.3206
fluorescence	-11.3206
ui	-11.3218
▁pyocyanin	-11.3221
▁subcutaneous	-11.3221
▁examining	-11.3221
▁Wild	-11.3221
mimetic	-11.3221
▁bulb	-11.3221
▁microdilution	-11.3221
▁photocatalytic	-11.3222
▁Accumulation	-11.3222
put	-11.3222
▁carbonate	-11.3224
▁normally	-11.3226
amended	-11.3228
▁83	-11.3229
▁era	-11.3229
▁driver	-11.3231
ook	-11.3234
ania	-11.3236
competent	-11.3237
TZ	-11.3238
version	-11.3239
ulos	-11.3239
▁disaster	-11.3242
▁ferritin	-11.3242
▁radiata	-11.3242
oxygen	-11.3247
phila	-11.3248
▁tRNA	-11.3253
▁collect	-11.3256
▁lac	-11.3256
▁lungs	-11.3263
▁pyro	-11.3267
▁prospects	-11.3269
▁lengths	-11.3272
▁corals	-11.3273
▁TG	-11.3277
Fm	-11.3281
block	-11.3282
▁butyrate	-11.3284
▁plum	-11.3285
▁sequester	-11.3286
▁shallow	-11.3286
cholinesterase	-11.3286
lag	-11.3289
▁Unlike	-11.3293
TU	-11.3295
monad	-11.3295
ement	-11.3296
▁MMP	-11.3298
006	-11.33
▁scavenger	-11.3304
▁porcine	-11.3308
▁Shannon	-11.3308
▁hypoxic	-11.3308
▁Ultra	-11.3308
▁Spain	-11.3308
▁endpoint	-11.331
▁photochemical	-11.3312
terpenoid	-11.3314
ress	-11.3315
▁pressures	-11.332
▁Pinus	-11.3321
▁pyruvate	-11.3322
Wide	-11.3329
▁recruit	-11.333
▁rapeseed	-11.333
▁tolerated	-11.333
▁metastatic	-11.3331
▁Liver	-11.3332
▁stain	-11.3333
significant	-11.3337
▁concentrated	-11.3337
cord	-11.3339
▁elicitation	-11.3342
(4)	-11.3343
▁carboxyl	-11.3343
▁PCA	-11.3344
6.9	-11.3348
▁bacteriophages	-11.335
vit	-11.335
▁Chitosan	-11.3352
▁myeloid	-11.3352
▁vacuole	-11.3352
▁stool	-11.3352
▁macrolide	-11.3352
▁Short	-11.3353
quat	-11.3355
onate	-11.3355
MPK	-11.3358
condition	-11.3359
▁spike	-11.336
▁gum	-11.3362
▁If	-11.3364
steroid	-11.3365
rem	-11.3369
trept	-11.3369
▁93	-11.3371
▁principles	-11.3372
▁DBP	-11.3373
▁Immune	-11.3374
▁spoilage	-11.3374
▁swimming	-11.3374
▁proteolytic	-11.3374
▁Introduction	-11.3374
▁germplasm	-11.3374
▁Large	-11.3375
▁0.25	-11.3378
patient	-11.3379
hydrogen	-11.3385
▁adenosine	-11.3393
▁Efficacy	-11.3396
▁Individual	-11.3396
▁Metabolite	-11.3396
ective	-11.3399
▁adhesive	-11.34
deaminase	-11.3404
▁lowering	-11.3411
Glu	-11.3412
▁impli	-11.3416
▁Symbiosis	-11.3418
▁built	-11.3418
▁licheniformis	-11.3418
▁rs	-11.3423
▁cement	-11.3426
▁started	-11.343
105	-11.3431
▁Thermo	-11.3431
MFC	-11.3435
five	-11.3436
▁Antibiotics	-11.3437
▁slower	-11.3438
▁granules	-11.3439
▁aggregate	-11.3439
▁capsici	-11.344
▁consensus	-11.344
▁encourage	-11.344
▁deviation	-11.344
▁microflora	-11.344
▁Alternative	-11.344
hang	-11.3441
▁AhR	-11.3441
▁incomplete	-11.3442
▁canola	-11.3442
▁ribo	-11.3442
▁supernatants	-11.3452
▁Organ	-11.3454
▁dyes	-11.3457
▁coefficients	-11.3457
reported	-11.3459
▁neighboring	-11.3459
▁herbicides	-11.346
eight	-11.3461
2.7	-11.3462
▁pneumococcal	-11.3462
▁Zinc	-11.3462
▁fetal	-11.3462
▁Japanese	-11.3462
▁nigrum	-11.3463
▁elucidation	-11.3465
temp	-11.3465
▁3'	-11.3468
▁Phaseolus	-11.3468
7.7	-11.3469
Ab	-11.3469
reduction	-11.347
▁Promoting	-11.3472
▁valid	-11.3474
DMA	-11.3477
RAP	-11.3483
▁Pakistan	-11.3484
▁aegypti	-11.3484
▁detoxify	-11.3484
arin	-11.3491
▁prepare	-11.3493
▁bur	-11.3494
▁preparations	-11.3496
mia	-11.3497
back	-11.3498
▁CAP	-11.3503
▁reflecting	-11.3505
▁coffee	-11.3506
▁cortisol	-11.3506
▁eastern	-11.3506
▁heavily	-11.3506
epsilon	-11.3506
▁Plasma	-11.3506
actin	-11.3506
▁paradox	-11.3507
▁hepatocellular	-11.3507
dwelling	-11.3507
▁Dietary	-11.3507
▁Aim	-11.3512
ela	-11.3515
▁lot	-11.3517
▁Part	-11.3517
▁sowing	-11.3517
rice	-11.3518
▁illustrated	-11.352
edge	-11.3522
▁Bt	-11.3527
▁outline	-11.3527
bird	-11.3527
▁exp	-11.3528
▁leachate	-11.3529
▁reductive	-11.3529
▁agglomerans	-11.3529
galacto	-11.353
-100	-11.3531
▁Mean	-11.3534
▁otherwise	-11.3535
catalytic	-11.3537
▁strict	-11.3543
▁edge	-11.3544
bas	-11.3546
▁equally	-11.3546
▁microplastics	-11.3547
▁bacteroids	-11.3549
▁biofuel	-11.3551
▁infestans	-11.3551
▁Great	-11.3552
▁ram	-11.3552
▁%).	-11.3555
etting	-11.3558
▁GCF	-11.3559
signaling	-11.356
▁sta	-11.3561
▁implants	-11.3568
horn	-11.3571
▁dopamine	-11.3573
plasia	-11.3574
▁discriminate	-11.3574
▁garden	-11.3574
▁remote	-11.3574
▁flies	-11.3574
DGGE	-11.3575
▁MPa	-11.3575
isomer	-11.3577
oxidative	-11.358
watered	-11.358
▁deficits	-11.3581
▁lactones	-11.3582
▁COD	-11.3584
▁characters	-11.3586
iger	-11.3589
▁needle	-11.3593
▁Positive	-11.3596
▁serotonin	-11.3596
▁dispersion	-11.3596
▁fail	-11.3598
▁motile	-11.3598
▁observational	-11.3598
▁adaptability	-11.36
lb	-11.3603
▁Jasmonates	-11.3603
▁kind	-11.3603
▁fern	-11.3604
▁call	-11.3605
aba	-11.3609
▁grafting	-11.3612
ECs	-11.3613
▁solve	-11.3617
▁Efficient	-11.3619
▁Promotion	-11.3619
▁recalcitrant	-11.3619
▁Bna	-11.3622
▁assumed	-11.3623
=0.00	-11.3624
▁suppressor	-11.3625
80%	-11.3626
dione	-11.3627
▁irrigated	-11.3629
▁comprise	-11.3631
oblast	-11.3633
▁discrimination	-11.3641
▁officinalis	-11.3641
▁presumably	-11.3641
▁desired	-11.3641
▁rhizoplane	-11.3641
▁halotolerant	-11.3642
genes	-11.3643
stat	-11.3643
▁March	-11.3646
▁peaks	-11.3655
▁MAP	-11.3656
▁histo	-11.3661
7.0	-11.3663
▁directed	-11.3663
▁PsJN	-11.3664
▁fredii	-11.3664
immunomodulatory	-11.3664
▁irrespective	-11.3664
5.5	-11.3664
▁dissipation	-11.3664
▁subtropical	-11.3665
▁Mycorrhizal	-11.3665
▁coexistence	-11.3666
▁pet	-11.3667
born	-11.3673
DX	-11.3679
▁path	-11.368
▁reporting	-11.3682
▁mite	-11.3685
▁expert	-11.3687
▁shifted	-11.3688
▁RR	-11.3689
▁EG	-11.3692
TiO	-11.3697
▁delivered	-11.3698
▁Nitrogenase	-11.3702
axial	-11.3705
phylla	-11.3706
▁digital	-11.3707
▁State	-11.3709
▁Caenorhabditis	-11.3709
▁synergism	-11.3709
▁positions	-11.3712
metri	-11.3713
HSP	-11.3715
▁biphenyl	-11.3716
▁anthocyanins	-11.3716
▁Methano	-11.3717
▁COI	-11.3717
Pseudomonas	-11.3719
keto	-11.372
▁Ox	-11.3722
salt	-11.3725
▁compatibility	-11.3728
aden	-11.3728
sulfonate	-11.3729
▁HCN	-11.373
▁ancestor	-11.3732
▁destruction	-11.3732
▁strigolactone	-11.3732
▁selenium	-11.3732
▁tillage	-11.3732
▁hemoglobin	-11.3732
▁glabrata	-11.3732
▁mathematical	-11.3732
▁Class	-11.3733
▁latent	-11.3734
▁nucleic	-11.3737
▁maximize	-11.3739
▁Cry	-11.374
▁resveratrol	-11.3741
KO	-11.3741
▁Bur	-11.3743
▁alba	-11.3752
▁LOX	-11.3753
head	-11.3753
eurodegenerative	-11.3755
▁Society	-11.3755
▁ergosterol	-11.3755
▁fescue	-11.3755
Derived	-11.3755
▁polyphasic	-11.3756
▁biotechnology	-11.3756
▁uncharacterized	-11.3757
▁additionally	-11.3758
SnRK	-11.3765
▁Mill	-11.3765
%;	-11.3767
biocompatibility	-11.3769
ocin	-11.3771
▁ecologically	-11.3772
90%	-11.3774
▁fluoroquinolone	-11.3778
▁sesquiterpene	-11.3778
▁Family	-11.3778
▁smooth	-11.3778
;0.05)	-11.3778
▁sharp	-11.3778
zon	-11.3778
▁ectomycorrhizal	-11.3779
synthesis	-11.3783
▁adolescents	-11.3785
▁ameliorated	-11.3786
▁dihydro	-11.3787
localized	-11.3788
7.9	-11.3793
▁relations	-11.38
▁STAT	-11.38
▁Laboratory	-11.3801
▁cassava	-11.3801
▁magnesium	-11.3801
▁unveil	-11.3801
▁Copper	-11.3801
▁Sensing	-11.3801
▁textile	-11.3801
▁mothers	-11.3803
▁landfill	-11.3804
lactone	-11.3804
▁MTT	-11.3807
▁Pathogenic	-11.3808
▁Inhibitor	-11.3817
▁acted	-11.3819
▁demands	-11.3821
▁110	-11.3821
▁directions	-11.3821
nano	-11.3822
▁canker	-11.3823
AUC	-11.3824
▁bridge	-11.3825
RFLP	-11.3827
thermal	-11.3828
sterilized	-11.3834
nodulating	-11.3834
▁wastes	-11.3835
▁participates	-11.3836
5'	-11.3839
Pi	-11.384
▁biogenic	-11.384
▁Land	-11.3841
7.3	-11.3841
▁links	-11.3845
▁hierarchical	-11.3847
▁Canada	-11.3847
▁integrating	-11.3847
▁Fungus	-11.3847
▁epitope	-11.3847
▁bases	-11.3847
▁thick	-11.3847
▁Nodulation	-11.3847
▁avoidance	-11.3849
▁competitiveness	-11.3851
▁subgroups	-11.3851
▁Ib	-11.3852
▁resolved	-11.3853
sea	-11.3853
▁CuO	-11.3855
▁saturated	-11.3861
▁summ	-11.3864
rated	-11.3865
0.2%	-11.3866
GUS	-11.3869
▁102	-11.3869
▁synergy	-11.387
▁osmolyte	-11.387
ancy	-11.387
uta	-11.3872
▁octa	-11.3873
gov	-11.3873
▁Loss	-11.3875
3.8	-11.3875
▁proteasome	-11.3878
▁phylo	-11.3879
▁Forty	-11.388
▁mung	-11.3881
aerobic	-11.3881
bot	-11.3882
oxid	-11.3883
▁Method	-11.3884
precipitation	-11.3887
▁hum	-11.3888
3.4	-11.3889
▁structured	-11.389
urea	-11.3892
▁bottom	-11.3893
▁cassette	-11.3893
▁ultraviolet	-11.3893
▁pseudomonads	-11.3893
▁Affect	-11.3893
▁Chlorella	-11.3894
▁monolayer	-11.3895
▁grade	-11.3895
▁lectin	-11.3895
▁airborne	-11.3897
▁recA	-11.3902
▁stabilize	-11.3902
2.8	-11.3903
temporal	-11.3904
cillin	-11.3906
▁embedded	-11.3907
▁2.6	-11.3908
proteins	-11.3908
▁drives	-11.3913
▁PubMed	-11.3916
▁titanium	-11.3916
▁cerebral	-11.3916
▁flexibility	-11.3916
▁oxylipin	-11.3916
molar	-11.3917
▁Mutation	-11.3917
▁disinfection	-11.3918
2.9	-11.3924
▁hairs	-11.3925
distance	-11.3929
▁6.0	-11.3933
ota	-11.3934
hexane	-11.3935
▁arterial	-11.3939
▁measles	-11.3939
▁premature	-11.3939
▁uremic	-11.3939
▁interspecies	-11.3943
▁notable	-11.3945
▁coexist	-11.3947
▁2,3-	-11.3947
▁WHO	-11.3948
▁blooms	-11.3953
▁cations	-11.3958
▁nanostructure	-11.3962
granul	-11.3963
▁australis	-11.3963
▁picture	-11.3963
▁square	-11.3965
▁stabilized	-11.3966
Mediate	-11.3976
▁know	-11.3977
Bi	-11.3982
▁favour	-11.3984
▁91	-11.3984
▁specialist	-11.3984
▁alveolar	-11.3986
▁immunocompromis	-11.3986
▁characterizing	-11.3986
▁alkane	-11.3987
▁agonists	-11.3988
▁pipeline	-11.3989
▁Tree	-11.399
HY	-11.3993
▁refine	-11.3994
inoculant	-11.3995
▁tubers	-11.4004
green	-11.4006
iva	-11.4009
▁Quality	-11.4009
▁opioid	-11.4009
▁swarming	-11.4009
▁binary	-11.4009
▁Ocean	-11.401
▁amphi	-11.401
▁compact	-11.4011
▁solvents	-11.4015
▁hydrophobicity	-11.4016
▁incorporat	-11.4017
3.2	-11.4022
▁canal	-11.4023
▁(22	-11.4024
▁biphenyls	-11.4028
aryl	-11.4029
▁rescue	-11.4043
▁ago	-11.4044
▁programmed	-11.4044
exposure	-11.4045
scavenging	-11.4045
▁his	-11.4046
inol	-11.4053
▁azo	-11.4054
▁pots	-11.4055
model	-11.4056
▁Liquid	-11.4056
▁seagrass	-11.4057
▁drastically	-11.4058
▁underlie	-11.406
▁managed	-11.406
ribosomal	-11.4062
▁NCT	-11.4065
aza	-11.4067
▁chloroplasts	-11.4067
tag	-11.4069
(2+)	-11.4071
▁Zea	-11.4071
biont	-11.4074
APX	-11.4075
▁Cold	-11.4075
▁mites	-11.408
▁applicability	-11.408
▁dimension	-11.4082
▁salivary	-11.4082
1.5%	-11.4084
▁manipulate	-11.409
mum	-11.409
▁get	-11.4093
lk	-11.4094
▁Bay	-11.4097
▁forward	-11.4098
scopic	-11.4102
▁watermelon	-11.4104
▁Relative	-11.4104
▁surveys	-11.4107
▁neglected	-11.4108
▁metagenomics	-11.4108
▁categorized	-11.4108
situ	-11.411
▁hospitalization	-11.4111
yne	-11.4112
▁125	-11.4113
▁mycotoxin	-11.4115
▁nanocomposite	-11.4115
▁productive	-11.4118
▁rootstock	-11.4119
▁beet	-11.412
metabolizing	-11.4127
▁chaperone	-11.4127
▁longevity	-11.4127
▁negligible	-11.4127
9.8	-11.413
arian	-11.4135
▁indexes	-11.414
▁broader	-11.4145
▁disk	-11.4146
▁emulsion	-11.4146
plasma	-11.415
▁conflict	-11.4151
▁elderly	-11.4151
▁myocardial	-11.4151
▁rubber	-11.4151
▁abstract	-11.4151
▁diesel	-11.4151
▁Process	-11.4151
▁predator	-11.4155
▁spent	-11.4159
▁mosquitoes	-11.416
degradation	-11.416
▁Promote	-11.4163
carrier	-11.4164
ank	-11.4167
osphere	-11.4171
▁Flood	-11.4175
▁abscission	-11.4175
▁manufacturing	-11.4175
▁proximal	-11.4175
▁accessory	-11.4177
escent	-11.4177
▁inbred	-11.4177
8.8	-11.418
▁spiked	-11.418
rf	-11.4181
odium	-11.4184
▁km	-11.4187
WW	-11.4188
YL	-11.419
▁alignment	-11.4199
▁thousand	-11.4199
▁stationary	-11.4199
▁mountain	-11.4199
▁Raman	-11.4199
▁Index	-11.4199
DCs	-11.42
▁Probiotic	-11.4201
nine	-11.4201
rius	-11.4202
▁predators	-11.4212
▁107	-11.4217
ologists	-11.4219
rod	-11.422
▁fingerprinting	-11.4221
▁guidance	-11.4223
▁voltage	-11.4223
▁centers	-11.4223
4.0	-11.4224
new	-11.4225
iflora	-11.4226
▁probes	-11.4228
▁alk	-11.4228
3.6	-11.4229
▁null	-11.423
▁fasting	-11.4231
▁evolve	-11.4233
material	-11.4236
▁atom	-11.4241
▁CAM	-11.4242
▁Numerous	-11.4247
▁succinate	-11.4247
▁foot	-11.4248
Met	-11.4249
▁tar	-11.425
▁esterase	-11.4251
ky	-11.4252
▁mor	-11.4252
▁section	-11.4258
▁labeling	-11.4258
ode	-11.4258
▁EOs	-11.4262
ophilic	-11.4265
▁Mutant	-11.4271
▁reactors	-11.4272
▁alpine	-11.4272
▁crevic	-11.4273
▁Cyp	-11.4274
▁paired	-11.4281
▁adsorbed	-11.4281
sperm	-11.4283
▁fatal	-11.4284
substituted	-11.4285
RNAi	-11.4286
▁pyrene	-11.4292
▁quin	-11.4294
▁Ascomycota	-11.4295
▁subfamilies	-11.4295
▁Nigeria	-11.4295
▁analog	-11.4306
▁master	-11.4307
▁microcosm	-11.4308
▁West	-11.4308
gue	-11.4311
▁QTLs	-11.4315
▁infested	-11.4316
▁94	-11.4317
▁7.5	-11.4318
▁catalysis	-11.4319
▁phenomena	-11.4319
▁template	-11.4319
0.2	-11.4319
▁look	-11.4322
▁earth	-11.4322
▁Male	-11.4323
▁Reactive	-11.4323
proliferative	-11.4326
▁run	-11.4329
QD	-11.4333
▁physio	-11.4336
▁filling	-11.4338
▁kit	-11.4339
▁oligomer	-11.434
▁angiogenesis	-11.4343
▁bioaugmentation	-11.4343
▁Amazon	-11.4343
▁phenols	-11.4344
▁Infections	-11.4346
▁mustard	-11.4346
▁enrich	-11.4348
▁plot	-11.435
▁translate	-11.435
▁Vigna	-11.4351
▁wider	-11.4352
8.3	-11.4358
▁crypt	-11.4361
6.7	-11.4361
▁habit	-11.4361
PCA	-11.4362
▁harvesting	-11.4366
▁Erwinia	-11.4367
▁MESSAGE	-11.4367
▁gentamicin	-11.4367
▁Phosphorus	-11.4367
▁atrazine	-11.4367
▁molar	-11.4369
▁fight	-11.4372
▁Phase	-11.4376
tropic	-11.4376
cultivated	-11.4376
Arabidopsis	-11.4382
6.3	-11.4384
▁1:1	-11.4384
▁organelles	-11.4385
▁alanine	-11.4385
▁parv	-11.4386
▁fluids	-11.4387
▁manufacture	-11.4392
▁ornamental	-11.4392
▁Animal	-11.4392
▁mosseae	-11.4392
▁mRNAs	-11.4395
▁pasture	-11.4395
▁surviv	-11.4396
electro	-11.4398
▁ever	-11.4402
production	-11.4405
opathy	-11.4409
▁0.06	-11.4409
▁CRC	-11.4416
▁92	-11.4416
▁vulgare	-11.4416
▁spatiotemporal	-11.4416
▁unicellular	-11.4416
▁connect	-11.4416
glycemic	-11.4417
morphic	-11.4418
dihydro	-11.4423
▁July	-11.4426
MYC	-11.4429
drought	-11.4431
table	-11.4433
▁fabric	-11.4434
▁Melatonin	-11.4441
▁deterioration	-11.4441
▁poisoning	-11.4441
▁April	-11.4441
▁June	-11.4442
genous	-11.4443
▁pipe	-11.4452
fungi	-11.4452
▁acetylation	-11.4453
lide	-11.4454
sulfate	-11.4456
▁consumer	-11.4459
5.9	-11.4462
▁generalist	-11.4463
▁carbonyl	-11.4464
▁International	-11.4465
▁bamboo	-11.4465
▁mellonella	-11.4465
▁miltiorrhiza	-11.4465
▁triglyceride	-11.4465
▁symptomatic	-11.4467
regulating	-11.4473
▁covering	-11.4478
109	-11.448
▁Rec	-11.448
Akt	-11.4484
▁encountered	-11.4485
▁occupational	-11.4486
▁abdominal	-11.4487
▁Nutrition	-11.449
▁Little	-11.449
▁lifespan	-11.449
▁Therapy	-11.449
▁autoimmune	-11.449
▁hr	-11.449
▁salmon	-11.4492
ASR	-11.4499
▁archaeal	-11.4499
source	-11.4501
▁PLA	-11.4502
▁sun	-11.4505
enhanced	-11.4505
CIPK	-11.4506
▁urgently	-11.4509
▁putatively	-11.4509
nder	-11.451
▁energetic	-11.451
▁180	-11.4513
▁Bifidobacterium	-11.4514
▁gaseous	-11.4514
▁protist	-11.4514
▁electrostatic	-11.4515
vibrio	-11.4517
▁lipoprotein	-11.4517
▁primer	-11.452
▁ACE	-11.4525
nutrient	-11.4528
IFN	-11.4528
▁Legume	-11.453
parasite	-11.4531
▁conformational	-11.4533
▁dissect	-11.4534
acquired	-11.4535
▁accession	-11.4536
▁Administration	-11.4539
▁Reduction	-11.4539
▁vanadium	-11.4539
▁provision	-11.4539
▁3.2	-11.4543
▁melon	-11.4547
▁nodulate	-11.455
▁EX	-11.4551
6.5	-11.4551
pf	-11.4552
▁rescued	-11.4553
qRT	-11.4559
▁mediator	-11.456
▁emerge	-11.4563
▁campaign	-11.4564
▁Present	-11.4564
▁influx	-11.4564
▁psychological	-11.4566
▁tank	-11.4566
8.4	-11.4567
▁optimiz	-11.4567
round	-11.4567
▁collectively	-11.4572
pol	-11.4574
▁lymphocytes	-11.4574
▁smoke	-11.4574
▁substitute	-11.4575
▁oppos	-11.4578
▁simulate	-11.4579
▁transitions	-11.458
▁Forest	-11.4583
▁participation	-11.4589
▁Arsenic	-11.4589
▁annuum	-11.4589
▁sum	-11.459
▁dioxygenase	-11.4593
load	-11.4597
▁polyamine	-11.4597
6.7%	-11.46
▁(0.2	-11.4601
▁rad	-11.4602
▁sur	-11.4604
▁TGA	-11.4605
▁yielding	-11.4605
ecological	-11.461
ising	-11.4611
▁yr	-11.4613
▁Standard	-11.4613
▁Vaccination	-11.4613
▁submitted	-11.4613
▁microsomal	-11.4613
▁Adult	-11.4614
▁rapa	-11.4615
▁gelatin	-11.4616
▁explanation	-11.4616
▁Last	-11.4622
▁lag	-11.4623
▁spreading	-11.4623
trache	-11.4624
somes	-11.4628
zer	-11.4629
ifolium	-11.463
second	-11.463
▁sRNA	-11.4632
concentration	-11.4633
fire	-11.4635
▁Membrane	-11.4638
▁effusion	-11.4638
▁stutzeri	-11.4638
▁unprecedented	-11.4638
▁systemically	-11.4639
▁hub	-11.4646
▁App	-11.4648
▁sterilized	-11.4652
▁Jasmonate	-11.466
▁beef	-11.466
▁object	-11.4661
▁August	-11.4663
▁Distribution	-11.4663
▁twenty	-11.4663
Importance	-11.4663
Ex	-11.4669
▁prone	-11.467
▁1,4-	-11.4671
review	-11.4677
bb	-11.4679
izer	-11.4679
▁mito	-11.4681
8.6	-11.4683
▁accepted	-11.4688
▁stewardship	-11.4688
▁teeth	-11.4688
▁veterinary	-11.4688
▁embryogenesis	-11.4689
▁clock	-11.4693
▁grafted	-11.4694
rth	-11.4695
cultured	-11.4697
▁Concentrations	-11.4698
Pisum	-11.4699
▁Australian	-11.4705
▁arg	-11.4706
triazole	-11.4706
▁minimiz	-11.4707
chelating	-11.4707
▁pave	-11.4711
▁thym	-11.4712
▁California	-11.4714
▁fengycin	-11.4714
▁argue	-11.4715
Dependent	-11.4719
▁representatives	-11.4729
▁TEM	-11.4729
propagat	-11.4731
▁visit	-11.4733
▁arch	-11.4738
▁ferment	-11.4738
▁September	-11.4739
▁enormous	-11.4739
▁indispensable	-11.4739
▁Nostoc	-11.4739
▁diploid	-11.4739
▁Institute	-11.4739
▁Flavobacterium	-11.4739
▁planning	-11.4739
▁sometimes	-11.4739
▁UC	-11.4741
▁cough	-11.4743
KCTC	-11.4744
▁BMI	-11.4745
▁Late	-11.4747
topic	-11.4747
▁interior	-11.4748
IE	-11.4749
▁mTOR	-11.4751
▁alcohols	-11.4753
▁cyano	-11.4755
▁cities	-11.4755
structural	-11.4756
▁mating	-11.476
Formula	-11.4762
▁probable	-11.4764
▁amide	-11.4764
▁speculate	-11.4764
▁PPR	-11.4764
▁biopesticide	-11.4765
▁chromatographic	-11.4766
▁absorbed	-11.4766
terior	-11.4767
▁Bioactive	-11.4767
tuning	-11.477
▁IT	-11.4771
▁anther	-11.4772
▁3.3	-11.4773
▁effluents	-11.4775
coccus	-11.4777
▁fragmentation	-11.4779
hum	-11.4783
date	-11.4784
▁WCS	-11.4784
cn	-11.4785
3.9	-11.4788
▁hippocampus	-11.4789
▁histidine	-11.4789
▁utilis	-11.4789
▁relieve	-11.4793
acea	-11.4794
▁expanding	-11.4801
▁IBD	-11.4802
▁elucidat	-11.4802
://	-11.4804
▁Rho	-11.4807
▁Intestinal	-11.4815
▁disappear	-11.4815
▁inflorescence	-11.4815
▁influent	-11.4815
acrylamide	-11.4815
▁homoserine	-11.4822
▁DCs	-11.4822
8.1	-11.4824
PAHs	-11.4834
inhibitory	-11.4835
▁uncertain	-11.4839
organisms	-11.484
▁exponential	-11.484
▁extinction	-11.484
▁seropedicae	-11.484
▁phytotoxic	-11.484
▁tendency	-11.4841
flavin	-11.4843
▁encounter	-11.4845
4]	-11.4846
▁accumulating	-11.4846
ATP	-11.4846
▁MoFe	-11.4849
▁Combination	-11.485
▁metabolically	-11.4851
linking	-11.4851
▁round	-11.4852
▁0.001	-11.4859
▁move	-11.4859
blind	-11.4859
▁Siderophores	-11.486
▁anterior	-11.4863
ometry	-11.4864
▁anthracnose	-11.4866
▁suitability	-11.4866
▁snail	-11.4866
▁axenic	-11.4866
▁continent	-11.4866
▁thread	-11.4866
▁Tumor	-11.4867
▁threaten	-11.4867
▁microsymbiont	-11.4867
(3-	-11.4871
▁zeatin	-11.4873
affected	-11.4882
▁traditionally	-11.4888
▁fibro	-11.489
▁apparatus	-11.4891
▁erythrocyte	-11.4891
▁pheromone	-11.4891
▁redundancy	-11.4891
▁integral	-11.4891
▁.05)	-11.4892
▁mapped	-11.4893
▁lysis	-11.4895
▁episodes	-11.4895
▁captured	-11.4896
▁sprouts	-11.4896
▁GUS	-11.4897
itol	-11.49
▁NRR	-11.4902
1-4	-11.491
Phaseolus	-11.491
▁microglia	-11.4913
▁CON	-11.4915
▁moth	-11.4916
▁What	-11.4917
▁Panax	-11.4917
▁Uptake	-11.4917
9.5	-11.4918
▁horse	-11.4918
▁alga	-11.4922
▁tension	-11.4922
mix	-11.4922
▁Report	-11.4922
▁preserved	-11.4928
▁strictly	-11.493
▁Nitr	-11.493
terminus	-11.493
▁tropici	-11.4933
▁heating	-11.4934
anthr	-11.4937
▁haplotype	-11.4943
▁notoginseng	-11.4943
▁submerged	-11.4943
▁Profile	-11.4943
▁brassicae	-11.4943
▁viscosity	-11.4943
▁alternate	-11.4943
▁Remarkably	-11.4944
flight	-11.4945
▁xenobiotics	-11.4945
9-2	-11.4945
▁Fixation	-11.4946
▁functionalized	-11.4946
▁choline	-11.4947
BW	-11.4947
enone	-11.4948
5.4	-11.4948
PYL	-11.4949
▁Biofilms	-11.4955
AQP	-11.4957
▁103	-11.4959
kappa	-11.4961
▁Evolution	-11.4967
▁leukocyte	-11.4968
▁oxidoreductase	-11.4968
▁Morphological	-11.4969
▁randomised	-11.4969
▁monoterpene	-11.497
otropic	-11.4974
cross	-11.4975
▁Lipid	-11.4975
▁SDS	-11.4976
▁tubes	-11.4977
▁Dual	-11.4981
AST	-11.4987
▁FMT	-11.4988
▁Knowledge	-11.4994
▁arthritis	-11.4994
▁cocktail	-11.4994
▁Statistical	-11.4994
nif	-11.4998
shed	-11.5
enyl	-11.5002
▁bands	-11.5002
osyl	-11.5006
▁CAS	-11.5009
▁That	-11.501
▁Caus	-11.5011
▁Involved	-11.502
▁protegens	-11.502
▁rolfsii	-11.502
▁scattering	-11.502
▁uranium	-11.502
▁ectopic	-11.502
▁bacilli	-11.502
▁Target	-11.5023
structure	-11.5023
▁cuttings	-11.5024
▁biopolymer	-11.5025
▁carbapenemase	-11.5033
chus	-11.5037
▁rearrangement	-11.5046
▁purple	-11.5046
▁vineyard	-11.5046
▁clinicians	-11.5046
▁hydrothermal	-11.5047
phr	-11.5049
▁97	-11.5049
▁charged	-11.5055
▁expect	-11.5056
assi	-11.5067
CAM	-11.5068
▁Hormone	-11.5072
▁Spodoptera	-11.5072
▁hotspot	-11.5072
▁scope	-11.5072
▁ribosome	-11.5074
▁Draft	-11.5077
▁toxicological	-11.5077
plication	-11.5079
sensitivity	-11.508
▁compromise	-11.5083
cluding	-11.5088
▁berry	-11.5093
chia	-11.5094
▁depleted	-11.5096
4.6	-11.5097
▁linking	-11.5097
pheno	-11.5098
tech	-11.5098
▁Yellow	-11.5098
▁anammox	-11.5098
▁Maximum	-11.5099
▁blotting	-11.51
▁Macro	-11.51
▁chemokine	-11.5104
▁hinder	-11.5104
ophytes	-11.5105
ulum	-11.5109
▁AMD	-11.5111
▁mycotoxins	-11.5113
▁Plan	-11.5113
mt	-11.5117
particle	-11.5117
▁glycosyl	-11.512
weed	-11.5122
▁saturation	-11.5123
▁Synergistic	-11.5124
▁Vaccine	-11.5124
▁liquidambari	-11.5124
▁secretory	-11.5124
▁lactis	-11.5125
▁isotopic	-11.5125
▁mask	-11.5125
▁managing	-11.5125
▁serotype	-11.5128
EDS	-11.5128
WUE	-11.5128
▁mother	-11.5133
▁asymmetric	-11.5138
▁Hypo	-11.5139
PYR	-11.514
▁Tricho	-11.514
▁Highly	-11.5142
EDTA	-11.5148
▁exhaust	-11.5151
▁messenger	-11.5151
▁phenotyping	-11.5151
▁pleiotropic	-11.5151
▁Though	-11.5152
▁marsh	-11.5153
section	-11.5155
▁fabrication	-11.5156
▁hour	-11.5161
▁Oxygen	-11.5161
aea	-11.5163
▁5.5	-11.5163
hyper	-11.5164
ipes	-11.5169
▁loads	-11.5169
▁polypeptide	-11.5171
stimulation	-11.5171
▁pol	-11.5172
▁Therapeutic	-11.5177
▁likelihood	-11.5177
▁retrieved	-11.5177
▁biopsy	-11.5177
▁pathophysiology	-11.5177
▁Metagenomic	-11.5177
▁morphogenesis	-11.5177
iasis	-11.518
tz	-11.5182
▁steel	-11.5183
▁static	-11.5183
▁transported	-11.5185
9.6	-11.5192
▁nodC	-11.5196
▁Pot	-11.5198
▁chloro	-11.5201
▁fen	-11.5201
▁MBC	-11.5203
▁mannitol	-11.5203
▁radish	-11.5204
▁blockade	-11.5204
▁Program	-11.5205
rhamn	-11.5212
▁disturbances	-11.5214
▁dominate	-11.5216
angle	-11.5217
▁closed	-11.5218
▁Hsp	-11.5225
▁Phytohormones	-11.5226
▁surge	-11.523
▁Distinct	-11.523
▁decarboxylase	-11.523
▁fibroblast	-11.523
▁monocytes	-11.5231
▁NAA	-11.5231
▁phytostabiliz	-11.5237
rect	-11.5238
▁takes	-11.5239
stable	-11.5239
▁tomatoes	-11.5241
▁HBV	-11.5242
▁def	-11.5245
▁titers	-11.5247
▁4%	-11.5247
microbiome	-11.5251
▁Agents	-11.5253
GenBank	-11.5256
▁Degradation	-11.5256
▁mulberry	-11.5256
wise	-11.5257
▁dried	-11.5259
▁tooth	-11.5259
oxim	-11.526
nitrile	-11.5263
▁Stem	-11.5264
▁whereby	-11.5264
3,4	-11.5266
4.4	-11.5269
▁preferences	-11.527
▁MRI	-11.5282
▁autumn	-11.5283
▁definition	-11.5283
▁faecium	-11.5283
▁moieties	-11.5283
▁Initial	-11.5283
6.0	-11.5283
▁Lab	-11.5284
▁colonisation	-11.5284
8.7	-11.5286
7.1	-11.5288
direct	-11.529
▁implies	-11.529
▁attempts	-11.5294
▁alloy	-11.5294
ZnO	-11.5298
▁brief	-11.5298
▁pap	-11.5301
mM	-11.5304
▁Glyc	-11.5304
▁Day	-11.531
▁glucocorticoid	-11.531
▁peptidoglycan	-11.531
▁refractory	-11.531
▁disulfide	-11.5311
▁investment	-11.5312
▁formaldehyde	-11.5313
assa	-11.5315
▁permit	-11.5317
▁principle	-11.5323
loop	-11.5323
hydride	-11.5324
160	-11.5325
▁multilocu	-11.5326
MBC	-11.5327
▁obtaining	-11.5329
▁198	-11.5331
biological	-11.5335
▁organo	-11.5335
▁microbiology	-11.5336
▁session	-11.5336
▁Medical	-11.5336
▁window	-11.5337
▁computed	-11.5337
▁UW	-11.5337
25%	-11.5338
▁bacteriophage	-11.5338
▁kept	-11.5339
▁Active	-11.5341
▁Reduced	-11.5343
▁scab	-11.5344
regulate	-11.5345
▁ecotypes	-11.5347
1000	-11.5353
▁Tea	-11.5355
▁spraying	-11.5355
▁throughput	-11.5356
▁elongat	-11.536
sulfo	-11.5361
▁adjusting	-11.5361
▁outstanding	-11.5365
cycl	-11.5366
MOF	-11.5367
18:1	-11.5371
▁polyamines	-11.5372
▁weeds	-11.5375
▁physically	-11.5375
▁fus	-11.5377
▁DSE	-11.5379
▁update	-11.5381
▁fourth	-11.5381
Hydroxy	-11.5383
gut	-11.5389
▁Implications	-11.539
▁velocity	-11.539
▁DFX	-11.539
sensiti	-11.5392
xylene	-11.5395
▁etli	-11.5395
▁CAR	-11.5395
▁septic	-11.5398
▁freeze	-11.5401
▁None	-11.5403
▁camp	-11.5405
stream	-11.5407
tab	-11.541
retin	-11.5413
encoded	-11.5413
3.7	-11.5414
▁Pattern	-11.5417
▁Synthetic	-11.5417
▁rifampicin	-11.5417
▁monocot	-11.5417
coagulation	-11.5417
▁edema	-11.5417
▁oak	-11.5424
▁imposed	-11.5424
▁inverse	-11.5427
▁nodulated	-11.5433
▁magn	-11.5433
octa	-11.5436
diabetic	-11.5436
▁PIF	-11.5439
Chl	-11.5441
▁sandy	-11.5442
olysis	-11.5444
▁Behavior	-11.5444
▁Leishmania	-11.5444
▁anisopliae	-11.5444
▁category	-11.5444
▁inconsistent	-11.5444
▁Limit	-11.5446
▁obviously	-11.5446
▁virens	-11.5446
▁UDP	-11.545
▁islands	-11.5454
loe	-11.5455
creating	-11.5455
filtration	-11.5458
▁originally	-11.546
▁terpenoids	-11.5465
▁creatinine	-11.5471
▁hirsutum	-11.5471
▁volunteers	-11.5471
Arachis	-11.5471
traumatic	-11.5479
▁flat	-11.5484
▁uninfected	-11.5484
▁tropicalis	-11.5485
▁withstand	-11.549
real	-11.549
▁Ju	-11.5491
▁mats	-11.5491
▁faecal	-11.5496
▁cosmetic	-11.5498
▁pleural	-11.5498
▁Outcome	-11.5498
▁Likewise	-11.5498
benzoic	-11.5499
▁UTI	-11.5499
▁crust	-11.55
▁Rats	-11.55
TCP	-11.5501
▁multicellular	-11.5501
▁offered	-11.5501
▁Characteristics	-11.5502
case	-11.5503
▁degeneration	-11.5507
fol	-11.5507
▁participated	-11.5509
▁preferential	-11.5515
▁Correlation	-11.5526
▁describing	-11.5526
▁whilst	-11.5526
▁connectivity	-11.5526
▁Modulation	-11.5528
aya	-11.5529
▁COR	-11.5535
ERK	-11.5541
smokers	-11.5541
▁AsA	-11.5542
BDE	-11.5544
nitrogenase	-11.5547
WI	-11.5547
Fv	-11.5548
▁Signal	-11.5552
▁Eucalyptus	-11.5553
▁destroy	-11.5553
▁neuroprotective	-11.5554
BBX	-11.556
▁recipients	-11.5563
imonas	-11.5564
myco	-11.5567
lavi	-11.5571
meta	-11.5572
xanthin	-11.5575
membrane	-11.5576
rae	-11.5578
conversion	-11.5578
EXP	-11.5579
app	-11.558
▁prokaryotes	-11.558
▁width	-11.558
▁berries	-11.558
4.1	-11.5582
plex	-11.5583
▁naive	-11.5585
viridae	-11.5585
▁kb	-11.5586
▁PSB	-11.5588
fall	-11.5588
▁van	-11.559
phos	-11.559
▁lifetime	-11.5595
RLK	-11.56
▁Determin	-11.5603
▁Principal	-11.5608
▁arsenate	-11.5608
▁durum	-11.5608
▁overlapping	-11.5608
▁CHA	-11.5608
▁oligosaccharide	-11.561
▁analogue	-11.5614
▁trichomes	-11.562
▁reserve	-11.5622
▁government	-11.5623
▁thermodynamic	-11.563
SPME	-11.5633
▁erosion	-11.5635
▁hallmark	-11.5635
▁rhamnolipid	-11.5635
glucosyl	-11.5635
▁Seedlings	-11.5635
116	-11.5636
▁patch	-11.5643
xanth	-11.5647
▁unlike	-11.5651
adjusted	-11.566
▁cup	-11.5662
▁Ochrobactrum	-11.5663
▁arsenite	-11.5663
▁allergic	-11.5663
▁Mucor	-11.5663
▁nectar	-11.5663
▁PRO	-11.5663
▁reliability	-11.5664
▁tannin	-11.5667
▁Glycine	-11.567
▁carp	-11.5674
▁sk	-11.5676
▁explaining	-11.5676
IK	-11.5676
characterized	-11.5685
amylase	-11.5688
cultivation	-11.5688
▁Plasmodium	-11.5691
▁diazoefficiens	-11.5691
▁permanent	-11.5691
▁damaging	-11.5691
▁Eastern	-11.5691
▁0.99	-11.5698
hypersensitivity	-11.5703
▁introduc	-11.5705
▁intraspecific	-11.5711
catalyst	-11.5714
oligosaccharide	-11.5716
complex	-11.5716
▁resid	-11.5717
3.5%	-11.5718
▁Variovorax	-11.5718
▁acceptor	-11.5718
▁accordance	-11.5718
▁immature	-11.5718
▁violaceum	-11.5718
}	-11.5718
▁motivat	-11.5718
▁atypical	-11.5719
▁coronary	-11.5719
▁Biochar	-11.572
ATCC	-11.5722
▁wind	-11.5723
▁Hv	-11.5726
ncRNA	-11.5728
▁perturbations	-11.5729
biome	-11.5729
▁UA	-11.5729
acrylate	-11.5732
appropriate	-11.5744
▁physico	-11.5746
▁arrangement	-11.5746
▁progenitor	-11.5746
▁Zealand	-11.5747
▁Diverse	-11.5747
▁Pathways	-11.5748
▁ecto	-11.5749
▁repeats	-11.5751
remediat	-11.5751
fusion	-11.5758
140	-11.5759
oscopy	-11.5761
▁termite	-11.5767
▁unrelated	-11.577
wire	-11.5771
▁Leu	-11.5772
▁2009	-11.5772
transport	-11.5773
food	-11.5774
▁acetone	-11.5774
{	-11.5774
▁labile	-11.5775
▁Tyr	-11.5776
cycling	-11.5781
▁resemble	-11.5782
▁warrant	-11.5782
uran	-11.5782
kinase	-11.5784
▁Cho	-11.5785
LEA	-11.5785
ophyllum	-11.5788
▁GFP	-11.579
ordinat	-11.5792
▁RND	-11.5796
▁xantho	-11.5796
inhibition	-11.58
▁Egypt	-11.5802
▁aminoglycoside	-11.5802
▁avocado	-11.5802
▁chemotaxonomic	-11.5802
▁texture	-11.5803
▁Center	-11.5804
▁methodologies	-11.5804
Fenton	-11.5811
▁cool	-11.5813
▁METHOD	-11.5817
ether	-11.5821
anine	-11.5825
tryptophan	-11.5828
sexual	-11.5829
▁Comprehensive	-11.583
▁Diabetes	-11.583
▁Traditional	-11.583
▁alfredii	-11.583
▁europaea	-11.583
▁inadequate	-11.583
▁panicle	-11.583
▁snow	-11.583
▁compensate	-11.583
▁probing	-11.5831
▁tuberosum	-11.5831
▁Another	-11.5832
▁Protection	-11.5832
▁unsaturated	-11.5832
▁irregularis	-11.5832
▁cutaneous	-11.5832
ACE	-11.5833
▁0.08	-11.5834
▁crystalline	-11.5835
▁cave	-11.5836
▁passage	-11.5843
▁advancement	-11.5844
▁nanocomposites	-11.5847
▁Addition	-11.5847
pk	-11.5848
▁Diet	-11.5848
▁favored	-11.5852
▁Che	-11.5852
LED	-11.5854
nuclear	-11.5856
thalassemia	-11.5858
▁digestibility	-11.5858
carotene	-11.5858
▁Aphid	-11.5859
▁800	-11.5865
▁Dys	-11.5866
▁diminish	-11.5866
endophyte	-11.5866
uf	-11.5867
▁transferase	-11.5868
▁surfactants	-11.5871
▁Transform	-11.5871
house	-11.5873
▁addressing	-11.5875
current	-11.588
▁flagella	-11.5882
▁admitted	-11.5887
▁branched	-11.5888
▁ontology	-11.5888
▁0.5%	-11.5891
butanol	-11.5891
▁users	-11.5892
▁game	-11.5892
▁109	-11.5894
▁biotrophic	-11.5897
▁Experiments	-11.5899
▁rootstocks	-11.5903
▁punct	-11.5908
▁releasing	-11.5915
▁Plateau	-11.5915
▁schistosomiasis	-11.5915
▁holobiont	-11.5915
▁headspace	-11.5915
▁serotypes	-11.5917
▁5'-	-11.5921
▁balanced	-11.5922
▁away	-11.5926
▁cow	-11.593
8.2	-11.5933
9.9	-11.5936
▁Entero	-11.5938
DAPG	-11.5939
evolution	-11.594
▁auris	-11.5941
assembly	-11.5942
▁Profiling	-11.5943
▁denitrifying	-11.5943
▁pyrethroid	-11.5943
▁garlic	-11.5943
▁Information	-11.5943
▁Salvia	-11.5944
▁slope	-11.5947
genomic	-11.5951
▁(5)	-11.5952
▁titer	-11.5954
▁conidial	-11.5957
▁mesenchymal	-11.5957
▁oxidize	-11.5959
PCL	-11.5959
pair	-11.596
Mg	-11.5961
available	-11.5968
surface	-11.5969
▁albi	-11.597
▁aquaporin	-11.5972
▁waterlogging	-11.5972
▁proceed	-11.5972
phagous	-11.5972
▁deposit	-11.5974
▁existed	-11.5976
▁biogas	-11.5977
▁factorial	-11.5978
▁Few	-11.5978
▁phosphorylated	-11.5978
▁newborn	-11.5979
▁ATPase	-11.5979
base	-11.598
rise	-11.5982
▁betaine	-11.5986
▁keto	-11.5987
far	-11.5995
▁typing	-11.5995
modal	-11.5996
▁rabbits	-11.5997
SiO	-11.5998
▁artemisinin	-11.6
▁erythromycin	-11.6
▁fecundity	-11.6
▁progeny	-11.6
▁prophylactic	-11.6
▁gyrB	-11.6
▁.001)	-11.6001
▁QQ	-11.6002
▁striking	-11.6002
▁Toxicity	-11.6003
▁radial	-11.6003
▁Germany	-11.6004
▁indeed	-11.6007
electron	-11.6008
MADS	-11.601
▁domestication	-11.6017
▁MPs	-11.6022
clinical	-11.6024
▁Combin	-11.6028
making	-11.6029
▁phosphorous	-11.6029
▁thrive	-11.6029
▁sharing	-11.6029
▁lymphoma	-11.603
▁manual	-11.6031
▁Targeting	-11.6032
▁transmit	-11.6032
chemotherapeutic	-11.6032
omin	-11.6033
labelled	-11.6037
▁coincid	-11.6038
▁spinal	-11.604
▁BCG	-11.6044
MJ	-11.6048
▁survived	-11.6049
amido	-11.6051
PLA	-11.6052
mim	-11.6056
kingdom	-11.6057
▁Microbes	-11.6058
▁fibre	-11.6058
9.3	-11.6058
▁pyrolysis	-11.6058
▁mutated	-11.6059
▁aldehydes	-11.6061
▁Candidatus	-11.6067
Trifolium	-11.6068
imide	-11.6073
ZIP	-11.6074
▁naphthalene	-11.6074
▁gases	-11.6078
▁node	-11.6085
sequence	-11.6085
▁Hybrid	-11.6087
▁bleeding	-11.6087
▁carriage	-11.6087
▁eugenol	-11.6087
▁Potato	-11.6087
▁resistome	-11.6089
▁adhere	-11.6089
▁multiplex	-11.609
▁younger	-11.6091
▁bare	-11.6093
▁fra	-11.6095
▁malate	-11.6097
▁Legumes	-11.6097
▁Du	-11.6099
▁character	-11.6101
▁slowly	-11.6103
/10	-11.6109
▁accessible	-11.6114
▁cephalosporin	-11.6116
▁mussel	-11.6116
▁ruminant	-11.6116
▁giant	-11.6116
nZVI	-11.6116
▁breakdown	-11.6116
▁Members	-11.6117
▁PYL	-11.6117
▁outpatient	-11.6118
▁amylase	-11.6118
▁gray	-11.6121
▁incorporate	-11.6121
▁coculture	-11.6124
124	-11.6127
shell	-11.6128
▁lipopeptide	-11.6129
heli	-11.6131
▁warranted	-11.6137
▁oat	-11.6137
def	-11.6137
▁Deletion	-11.6145
▁capillary	-11.6145
▁spherical	-11.6145
▁ferro	-11.6147
6+	-11.6158
enal	-11.6161
Vicia	-11.6164
▁microRNA	-11.6165
169	-11.6166
▁substituted	-11.6173
▁Beauveria	-11.6174
▁prerequisite	-11.6174
▁prolong	-11.6187
▁resting	-11.6189
total	-11.6193
▁spots	-11.6194
▁mac	-11.6195
▁bonding	-11.62
▁relate	-11.6202
▁Bacterium	-11.6203
▁FACTOR	-11.6203
▁bladder	-11.6203
▁proximity	-11.6203
▁xenograft	-11.6203
Related	-11.6203
▁hydrogenase	-11.6205
▁paralog	-11.6206
▁preterm	-11.621
▁BPH	-11.621
▁NPK	-11.6212
accumulator	-11.6212
urine	-11.6221
uz	-11.6227
standing	-11.6228
▁Xoo	-11.6231
▁efficacious	-11.6232
▁depict	-11.6232
propionic	-11.6233
▁photodynamic	-11.6234
lignan	-11.6242
003	-11.6242
▁replaced	-11.6251
▁big	-11.6252
▁switching	-11.6252
actuca	-11.6253
▁IgA	-11.6259
estradiol	-11.6261
▁infrastructure	-11.6261
▁packaging	-11.6261
▁photoperiod	-11.6261
▁scientists	-11.6261
▁zoonotic	-11.6261
▁Source	-11.6261
▁ppb	-11.6262
season	-11.6263
▁gingivalis	-11.6266
▁biochemistry	-11.6267
▁engineer	-11.6271
▁AMPK	-11.6273
histochemical	-11.6274
▁remediate	-11.6275
▁service	-11.6276
▁hydroxylase	-11.6281
▁storm	-11.629
▁Adaptation	-11.6291
▁automated	-11.6291
▁escape	-11.6291
change	-11.6291
▁APX	-11.6291
glutathione	-11.6291
▁99%	-11.6292
helix	-11.6295
fam	-11.6296
strict	-11.6302
ison	-11.6303
▁comparatively	-11.6306
▁thrombo	-11.6309
epoxy	-11.6311
▁glycoprotein	-11.6317
#	-11.632
▁Findings	-11.632
▁Wistar	-11.632
▁village	-11.632
▁ischemia	-11.632
▁colour	-11.632
▁midgut	-11.6321
▁interpret	-11.6321
▁polymicrobial	-11.6324
▁Dec	-11.6327
pogon	-11.6334
▁histopathologic	-11.6337
ocytosis	-11.6337
methylation	-11.6348
▁saponins	-11.6348
▁Fifty	-11.635
▁azithromycin	-11.635
▁itraconazole	-11.635
▁quadr	-11.635
▁malt	-11.635
▁protoplast	-11.635
▁scavenge	-11.6355
▁visits	-11.6357
▁quinolone	-11.6358
▁impairs	-11.6359
▁disturbed	-11.6366
▁seriously	-11.637
▁representation	-11.6373
▁sprayed	-11.6377
▁metallic	-11.6379
▁(-)-	-11.6379
▁Ethiopia	-11.6379
▁Safety	-11.6379
▁conjunction	-11.6379
GWAS	-11.6381
▁algorithms	-11.6382
▁Life	-11.6384
▁methionine	-11.6392
implant	-11.6393
▁Induce	-11.6396
indol	-11.64
▁CIP	-11.6404
▁competitors	-11.6405
▁cent	-11.6409
participating	-11.6409
▁facile	-11.6409
▁[(	-11.6409
▁SQR	-11.6409
raw	-11.641
▁diphosphatidyl	-11.641
▁Systematic	-11.641
▁Oxide	-11.6411
LU	-11.6412
AChE	-11.6414
4.5%	-11.6414
▁amelioration	-11.6416
▁restrain	-11.6419
▁actinobacterial	-11.6424
▁trichome	-11.6427
▁artificially	-11.6427
ij	-11.6433
▁XRD	-11.6434
ortic	-11.6434
▁Spectrometry	-11.6439
▁elaborate	-11.6439
▁multifaceted	-11.6439
▁aggravat	-11.6439
▁autoinducer	-11.6439
methylated	-11.6442
weaning	-11.6443
LAB	-11.6451
▁swabs	-11.6454
gfp	-11.6455
▁Toward	-11.6456
▁endosymbionts	-11.6457
copy	-11.646
▁Care	-11.6468
▁October	-11.6469
▁reclamation	-11.6469
▁vacuolar	-11.6469
▁bundle	-11.6469
▁Men	-11.647
111	-11.6475
4.2	-11.6476
▁Kinase	-11.6477
▁tracer	-11.6481
AFB	-11.6482
▁hampered	-11.6485
▁expos	-11.6487
▁endow	-11.6488
▁3.6	-11.6489
▁etiology	-11.6499
▁pristine	-11.6499
▁backbone	-11.6499
▁numerical	-11.6499
▁HY	-11.6502
▁Pathogens	-11.6507
▁BOX	-11.651
▁situations	-11.6513
▁generalized	-11.6515
mide	-11.6519
▁recipient	-11.652
stoma	-11.6521
▁apoplast	-11.6523
▁Instead	-11.6529
▁Parkinson	-11.6529
▁Rhizophagus	-11.6529
▁chroococcum	-11.6529
▁exacerbation	-11.6529
▁cepacia	-11.6529
▁ecotype	-11.653
▁zeta	-11.653
▁avian	-11.653
▁0.000	-11.6531
insensitive	-11.6531
▁publications	-11.6534
▁purine	-11.6536
▁Nitric	-11.6537
called	-11.6539
▁Concentration	-11.6548
800	-11.6549
▁Fur	-11.6549
▁continues	-11.6553
▁ischemic	-11.6558
▁voriconazole	-11.6559
▁Selected	-11.6559
LIKE	-11.656
ecosystem	-11.6562
▁disasters	-11.6562
▁Trp	-11.6565
▁patches	-11.6566
▁medic	-11.6566
produced	-11.6566
▁Wound	-11.6566
▁ferrous	-11.6567
inae	-11.6575
▁preserve	-11.6576
raft	-11.6577
▁Endophyte	-11.6579
ozo	-11.658
▁Ion	-11.658
iness	-11.6581
CFU	-11.6587
2019	-11.6588
▁Removal	-11.659
▁orientation	-11.659
▁peritoneal	-11.659
▁solubilisation	-11.659
▁sophisticated	-11.659
▁Spatial	-11.659
▁persons	-11.659
PIP	-11.6591
▁fingerprint	-11.6592
▁uncertainty	-11.6592
▁prioritiz	-11.6592
apoptotic	-11.6592
▁carboxylase	-11.6593
▁solely	-11.6596
decane	-11.6597
spired	-11.6597
▁defend	-11.6598
CMV	-11.6601
▁hydrological	-11.6605
▁ensur	-11.6609
▁centre	-11.6612
ITC	-11.6613
characterisation	-11.6613
▁Triticum	-11.6615
▁Agricultural	-11.662
▁hygiene	-11.662
▁intermittent	-11.662
▁graminis	-11.662
▁clues	-11.662
▁taxonomy	-11.662
▁FZB	-11.662
▁team	-11.6621
▁missing	-11.6621
▁advantageous	-11.6627
▁flour	-11.663
penta	-11.6631
liance	-11.6634
▁Mediate	-11.6637
▁Myr	-11.6639
▁killed	-11.6642
rinary	-11.6649
irradiated	-11.6651
▁chlorpyrifos	-11.6651
▁concert	-11.6651
▁pollinator	-11.6651
▁handling	-11.6657
▁Improvement	-11.6658
▁debate	-11.6659
▁metabolized	-11.6664
▁acne	-11.6666
▁updated	-11.6666
▁Inhibit	-11.6677
▁Achromobacter	-11.6681
▁Cladosporium	-11.6681
▁duplicate	-11.6681
▁neonates	-11.6681
▁nutraceutical	-11.6681
▁cobalt	-11.6681
▁immunoglobulin	-11.6682
▁mastitis	-11.6682
▁farmland	-11.6683
▁exon	-11.6685
▁macular	-11.6685
▁ants	-11.6685
▁Phage	-11.6686
metallic	-11.6687
▁adjust	-11.6687
3-2	-11.6688
▁oceanic	-11.6689
▁microRNAs	-11.6703
tide	-11.6703
▁sufficiently	-11.6704
▁complemented	-11.6705
▁mV	-11.6709
▁Tobacco	-11.6712
▁obstruct	-11.6712
▁Silver	-11.6712
▁Transmission	-11.6712
azo	-11.6713
lasting	-11.6715
Vis	-11.6721
ARGs	-11.6721
HIV	-11.6723
007	-11.6727
shore	-11.6733
uv	-11.6734
▁complication	-11.6734
▁SOC	-11.6737
▁falciparum	-11.6743
▁feather	-11.6743
▁intensities	-11.6743
▁mesocosm	-11.6743
▁monoclonal	-11.6743
▁necrotic	-11.6743
▁Leaves	-11.6743
HQ	-11.6743
▁Italian	-11.6743
▁bioactivities	-11.6743
▁Cellular	-11.6745
▁Mont	-11.6746
flood	-11.6746
▁exotic	-11.675
137	-11.6753
anoid	-11.6753
▁lupin	-11.6762
▁Extracts	-11.6763
▁impede	-11.677
hour	-11.6772
▁plausible	-11.6773
▁reciprocal	-11.6773
▁department	-11.6774
▁billion	-11.6774
▁capsular	-11.6774
▁Bacilli	-11.6774
▁hemolytic	-11.6774
▁cecal	-11.6775
▁modulators	-11.6775
▁immunogenicity	-11.6775
▁crack	-11.6776
native	-11.6776
resolved	-11.6777
human	-11.6777
▁untargeted	-11.6779
graphy	-11.6779
TOC	-11.678
established	-11.6785
▁margin	-11.6785
▁congeners	-11.6786
▁Herb	-11.6786
▁exceptional	-11.6786
▁tracking	-11.679
▁manipulated	-11.6791
oste	-11.6797
▁85%	-11.68
kinetic	-11.6801
▁Calcium	-11.6804
▁brought	-11.6804
▁homogeneous	-11.6804
▁meadow	-11.6804
protectant	-11.6805
▁broaden	-11.6806
infested	-11.6808
work	-11.6812
▁soy	-11.6812
▁0.1%	-11.6815
.6%,	-11.6815
▁manifested	-11.6818
extractable	-11.6819
DW	-11.6821
▁diagnose	-11.6822
▁PMN	-11.6825
▁trauma	-11.6826
▁ingredient	-11.6828
▁WD	-11.6828
abilities	-11.6828
▁mouth	-11.6832
▁Survival	-11.6836
▁Thailand	-11.6836
▁atroviride	-11.6836
▁predispos	-11.6838
▁washing	-11.6842
▁Caco	-11.6843
fluid	-11.6843
▁Generally	-11.6844
ova	-11.6844
▁transferrin	-11.6848
▁invertebrates	-11.6848
corn	-11.685
▁vent	-11.6851
▁metabolize	-11.6853
▁angiosperms	-11.6855
existing	-11.686
▁leuc	-11.686
ABCG	-11.6861
DOM	-11.6862
▁TCA	-11.6865
▁Chloroflexi	-11.6867
▁Yield	-11.6867
▁schedule	-11.6867
▁shotgun	-11.6867
▁checkpoint	-11.6867
CGMCC	-11.6867
nthrop	-11.6867
▁anchor	-11.6868
▁excluded	-11.6874
▁gastro	-11.6877
▁glucosinolates	-11.6881
▁multif	-11.6883
40%	-11.6887
etr	-11.6888
▁sulphate	-11.689
▁assimilate	-11.6894
▁hypogaea	-11.6898
▁Diazotroph	-11.6898
▁complexation	-11.6898
▁latitude	-11.6899
▁Peri	-11.69
▁transgene	-11.6901
Proteobacteria	-11.6902
▁overproduction	-11.6903
▁rpoB	-11.6905
ATION	-11.6907
▁vaso	-11.691
▁AOS	-11.6913
▁operate	-11.6916
Lolium	-11.6919
▁weaker	-11.6922
lyase	-11.6923
▁author	-11.6925
minotransferase	-11.6927
vegetated	-11.6929
▁aliphatic	-11.6929
▁expensive	-11.6929
▁quinoa	-11.6929
▁Foliar	-11.6929
▁oleifera	-11.6929
▁Produce	-11.6929
▁paid	-11.693
▁switchgrass	-11.693
▁pooled	-11.6933
aminobutyric	-11.6934
interacting	-11.6935
iro	-11.6938
Sahara	-11.694
99%	-11.6943
▁shortage	-11.6944
▁siRNA	-11.6945
▁manifestations	-11.6946
ABI	-11.6948
▁cigarette	-11.695
-(1	-11.695
nifH	-11.6951
activate	-11.6952
lax	-11.6953
▁sprout	-11.6954
▁ACCD	-11.6957
styrene	-11.6959
pplied	-11.696
▁Magnaporthe	-11.6961
▁Selective	-11.6961
▁controversial	-11.6961
▁meropenem	-11.6961
▁perhaps	-11.6961
▁reproducible	-11.6961
▁suspended	-11.6961
▁Antagonistic	-11.6961
▁isoprene	-11.6961
▁Colon	-11.6961
▁autotrophic	-11.6963
▁seek	-11.6965
promotion	-11.6966
QTL	-11.6966
▁scler	-11.6966
calcium	-11.6967
▁Tetra	-11.6968
stitut	-11.6969
▁represses	-11.6971
▁Grow	-11.6974
▁exceed	-11.6975
▁taxonomically	-11.6976
▁biome	-11.6976
▁FW	-11.6992
▁Lysinibacillus	-11.6992
▁convenient	-11.6992
▁disinfectant	-11.6992
▁olfactory	-11.6992
▁pertussis	-11.6992
▁preservative	-11.6992
Helianthus	-11.6992
nuclease	-11.6992
stranded	-11.6993
▁compliance	-11.6993
▁chemotactic	-11.6993
idic	-11.7001
hot	-11.7013
▁glutamic	-11.7014
▁costly	-11.7016
TER	-11.7022
▁limb	-11.7023
sulfamethoxazole	-11.7024
▁phagocytosis	-11.7024
▁scarcity	-11.7024
▁ventilation	-11.7024
▁integrative	-11.7024
▁Phospho	-11.7024
▁injuries	-11.7024
▁Link	-11.7027
▁nanofibers	-11.7029
tandem	-11.7029
▁(0.3	-11.703
▁crab	-11.703
▁attraction	-11.7031
▁0.07	-11.7032
media	-11.7034
▁bran	-11.7035
▁CLE	-11.7041
Bio	-11.7041
median	-11.7042
▁Act	-11.7042
sulfide	-11.7048
flavone	-11.7049
▁match	-11.7052
▁possibilities	-11.7056
▁submergence	-11.7056
▁spruce	-11.7056
▁bacteriostatic	-11.7056
▁chlorinated	-11.7057
▁Biodegradation	-11.7057
normal	-11.7062
coupled	-11.7063
▁draw	-11.7082
▁Rab	-11.7082
fauna	-11.7086
lla	-11.7087
▁Miscanthus	-11.7087
▁beverage	-11.7088
▁saprophytic	-11.7088
▁Strong	-11.7088
▁cooling	-11.7089
▁spill	-11.7089
▁OTU	-11.709
▁aeration	-11.7092
center	-11.7092
heat	-11.7092
▁sac	-11.7092
transgenic	-11.7095
▁proportional	-11.7095
▁Age	-11.7096
▁weakly	-11.7098
▁Amino	-11.7099
▁analytes	-11.7102
▁CDI	-11.7102
leu	-11.7103
▁droplets	-11.7115
▁Microcystis	-11.7119
▁Pectobacterium	-11.7119
▁assumption	-11.7119
▁brasiliensis	-11.7119
▁physicians	-11.712
157	-11.7125
▁alarm	-11.7125
▁hospitalized	-11.7129
▁Fecal	-11.7133
ptera	-11.7137
30%	-11.714
cyte	-11.7144
▁65%	-11.7144
UTI	-11.7148
▁VEGF	-11.7148
▁(+)-	-11.7148
▁innovation	-11.7151
▁periplasmic	-11.7151
▁technological	-11.7151
▁tremendous	-11.7151
▁dissociation	-11.7151
▁ensiling	-11.7151
chalcone	-11.7152
▁optimis	-11.7152
▁economical	-11.7152
morbid	-11.7152
▁adduct	-11.7152
▁orthologous	-11.7154
▁learn	-11.7155
▁basil	-11.7155
typing	-11.7158
▁microm	-11.7161
▁nonribosomal	-11.7161
▁fused	-11.7164
eigh	-11.7167
Com	-11.7169
900	-11.717
assemble	-11.717
fine	-11.7173
▁hit	-11.7174
pyran	-11.7176
HRMS	-11.7182
▁Environment	-11.7184
▁underpinning	-11.7184
▁Black	-11.7184
▁ICU	-11.7188
cytosine	-11.7191
liter	-11.7193
luc	-11.7193
liquid	-11.7194
RWC	-11.7202
▁Subsequent	-11.7205
Lys	-11.7209
▁nut	-11.7215
sensitization	-11.7216
▁caterpillar	-11.7216
▁chloramphenicol	-11.7216
▁neighbour	-11.7216
▁policies	-11.7216
▁unfavorable	-11.7216
▁inference	-11.7216
▁benign	-11.7216
▁SYSU	-11.7216
▁SCFA	-11.7219
optimum	-11.7222
▁polarization	-11.7223
precipitate	-11.7229
▁starter	-11.7229
Micro	-11.7229
▁operated	-11.723
▁flight	-11.723
llelic	-11.7237
▁NRPS	-11.7241
▁cytosol	-11.7242
▁Rap	-11.7242
▁modest	-11.7246
▁again	-11.7247
▁Extracellular	-11.7248
▁Purpose	-11.7248
▁antidepressant	-11.7248
▁ascertain	-11.7248
▁electrospray	-11.7248
▁Chromatography	-11.7248
▁runoff	-11.7249
▁chiral	-11.7249
▁She	-11.725
therapeutic	-11.7251
▁Regulatory	-11.7254
which	-11.7255
▁noise	-11.7261
▁exogenously	-11.7262
alkali	-11.7264
106	-11.7265
▁reside	-11.7266
▁luciferase	-11.7266
▁dog	-11.7267
ABF	-11.727
▁vermi	-11.7271
MBR	-11.7274
▁actinomycete	-11.7279
▁Site	-11.7279
▁dormant	-11.7281
▁metronidazole	-11.7281
▁peroxisome	-11.7281
▁prognostic	-11.7281
▁cherry	-11.7281
pinene	-11.7282
▁aldehyde	-11.7287
chitosan	-11.7288
▁socio	-11.7288
Like	-11.7288
▁predictor	-11.7289
imidazol	-11.7292
▁codon	-11.7294
▁cleaning	-11.7296
▁Fish	-11.7296
▁coat	-11.7301
▁4.2	-11.7307
▁helix	-11.7313
▁Kenya	-11.7313
▁bradyrhizobia	-11.7313
▁hippocampal	-11.7313
▁xylan	-11.7314
▁herbaceous	-11.7314
▁hydrophila	-11.7314
▁transfusion	-11.7314
ophila	-11.7315
▁NIN	-11.7322
4.3	-11.7324
▁3.8	-11.7325
face	-11.7326
▁0.002	-11.7326
STAT	-11.7331
▁estimat	-11.7331
▁140	-11.7332
▁mucin	-11.7337
ipping	-11.7337
utaneous	-11.7344
onema	-11.7344
▁Discovery	-11.7346
▁Langmuir	-11.7346
▁Strategies	-11.7346
▁experiencing	-11.7346
▁nematicidal	-11.7346
▁traffic	-11.7346
▁verticillioides	-11.7346
▁terreus	-11.7346
▁Genotype	-11.7346
sulfonamide	-11.7346
▁diffusible	-11.7346
▁accD	-11.7347
▁Rot	-11.7349
▁neighbor	-11.735
thiazole	-11.7354
▁prefer	-11.7356
giving	-11.7362
coccal	-11.7364
▁130	-11.7369
both	-11.7372
Glc	-11.7372
▁disseminat	-11.7375
phosphoryl	-11.7376
enoic	-11.7376
▁Emerging	-11.7379
▁microtubule	-11.7379
▁steatosis	-11.7379
▁Beijing	-11.7379
▁invading	-11.7379
▁mould	-11.7379
▁lipophilic	-11.7379
▁hydroxamate	-11.738
tella	-11.7381
▁subtypes	-11.7383
depleted	-11.7386
▁Chl	-11.7396
SMA	-11.7397
ntiproliferative	-11.7402
102	-11.7406
▁sheet	-11.7409
▁Self	-11.7412
hydroxybutyrate	-11.7412
▁boreal	-11.7412
▁terpenes	-11.7413
IQR	-11.7414
Malus	-11.7414
histochemistry	-11.7415
▁Thio	-11.7415
▁serial	-11.7416
dominant	-11.7417
▁apoplastic	-11.742
16:0	-11.7422
▁morphologically	-11.7426
▁pharmaco	-11.7427
▁fusari	-11.7428
▁reward	-11.7428
band	-11.7434
angiotensin	-11.7445
▁excitation	-11.7445
▁exigua	-11.7445
▁foliage	-11.7445
▁Lower	-11.7445
▁melanin	-11.7445
▁ocular	-11.7447
▁[95%	-11.7447
axis	-11.7448
▁inject	-11.7449
composite	-11.7451
▁128	-11.7452
SAUR	-11.7454
lope	-11.7459
▁translocate	-11.7459
EBP	-11.7459
charge	-11.746
▁oxidizing	-11.7462
marker	-11.7471
0.5%	-11.7472
varian	-11.7473
▁cryptic	-11.7476
▁sacchar	-11.7477
▁bronchi	-11.7477
▁Encyclop	-11.7478
▁deficiencies	-11.7478
▁bromide	-11.7478
secreting	-11.7478
▁White	-11.7478
▁answer	-11.7478
▁false	-11.7478
▁Blue	-11.7478
▁ARG	-11.7478
▁kingdom	-11.7479
▁salsa	-11.748
▁surveyed	-11.7481
▁PTE	-11.7483
▁mega	-11.7486
glycosyl	-11.7487
citrate	-11.7487
▁transplanted	-11.7489
▁aneurysm	-11.749
SSR	-11.7495
count	-11.7496
hetero	-11.75
▁degrada	-11.75
▁genotoxic	-11.7508
▁http	-11.7511
▁Selection	-11.7511
▁fischeri	-11.7511
▁hydrolysate	-11.7511
▁germinated	-11.7511
▁mutagenic	-11.7511
▁mobilize	-11.7511
▁remission	-11.7519
diazotroph	-11.752
uptake	-11.7523
▁Deep	-11.7524
▁latest	-11.7525
seven	-11.7526
minated	-11.7538
▁Assess	-11.7543
▁Susceptibility	-11.7544
▁immunosorbent	-11.7544
▁stratified	-11.7544
▁assemblage	-11.7546
▁relaxation	-11.7548
▁validity	-11.7549
▁SNF	-11.755
▁visualization	-11.7552
▁precede	-11.7553
locus	-11.7561
▁glycan	-11.7562
endo	-11.7563
▁Oxy	-11.7566
▁LED	-11.7567
▁160	-11.7569
▁reproduce	-11.7573
▁aberrant	-11.7578
▁decompose	-11.7578
▁imipenem	-11.7578
▁aperture	-11.7578
▁hydration	-11.7578
▁dispersed	-11.7578
▁feedstock	-11.7578
▁Special	-11.7583
hepta	-11.7584
4.4%	-11.7584
▁bank	-11.7586
yield	-11.7587
▁Action	-11.7589
serine	-11.7593
▁Phi	-11.7596
▁constrained	-11.7597
Regulat	-11.7601
hong	-11.7605
sarcoma	-11.7606
cient	-11.7606
▁CDK	-11.7606
▁Nonetheless	-11.7611
▁cenocepacia	-11.7611
▁deferasirox	-11.7611
▁hematopoietic	-11.7611
▁microfluidic	-11.7611
▁necessity	-11.7611
▁vittata	-11.7611
▁internode	-11.7611
▁noticed	-11.7614
ERS	-11.7617
▁4.1	-11.7621
▁internalization	-11.7624
VOC	-11.7625
conserv	-11.7637
fermentative	-11.7643
▁amplitude	-11.7645
▁cisplatin	-11.7645
▁spectrometer	-11.7645
▁Arctic	-11.7645
▁posterior	-11.7645
▁Antagonism	-11.7645
▁wavelength	-11.7645
▁Toll	-11.7645
▁seaweed	-11.7646
▁endosperm	-11.7646
▁geochemical	-11.7647
▁Enhancement	-11.7648
▁flame	-11.7648
ethnic	-11.7651
▁alongside	-11.7651
▁emotional	-11.7651
symbiont	-11.7652
▁Rose	-11.7653
▁wildlife	-11.7654
igen	-11.7666
poor	-11.7666
Phe	-11.767
▁collective	-11.7671
rax	-11.7675
▁2008	-11.7676
▁dialysis	-11.7677
parahaemolyticus	-11.7679
▁Artemisia	-11.7679
▁Glutathione	-11.7679
▁Sprague	-11.7679
▁arietinum	-11.7679
▁chapter	-11.7679
▁hemorrhage	-11.7679
▁provoke	-11.7679
▁evolutionarily	-11.7679
▁humoral	-11.7679
▁cuticular	-11.7679
▁LMG	-11.768
▁decontamination	-11.768
▁chlorogenic	-11.7681
MKK	-11.7681
▁UPLC	-11.7681
▁Area	-11.7683
▁bv	-11.7685
▁thoroughly	-11.7688
▁fear	-11.7688
▁Scale	-11.769
▁implement	-11.7692
417	-11.7696
fectious	-11.7696
tropis	-11.7697
▁stop	-11.7708
▁97%	-11.7709
hydrate	-11.7712
▁adenocarcinoma	-11.7713
▁deduced	-11.7713
▁hypothetical	-11.7713
▁sweetpotato	-11.7713
▁Fatty	-11.7713
▁elastic	-11.7713
▁calves	-11.7714
▁diffuse	-11.7714
circ	-11.7721
TOR	-11.7722
▁CIAT	-11.7723
power	-11.7723
▁derive	-11.7725
NRPS	-11.7726
▁Sym	-11.773
hose	-11.7732
alanine	-11.7733
145	-11.7733
~	-11.7747
▁echinocandin	-11.7747
▁Negative	-11.7747
▁mimicking	-11.7747
ALT	-11.7748
ister	-11.7749
▁upregulating	-11.7751
▁periodic	-11.7752
▁calculation	-11.7754
compound	-11.7757
NaCl	-11.7759
▁originate	-11.7759
agus	-11.7764
▁exclusive	-11.777
▁Agent	-11.7771
▁reuse	-11.7771
▁ORF	-11.7773
IBA	-11.7775
▁culturing	-11.7775
▁perturb	-11.7775
▁polio	-11.7777
▁Competition	-11.7781
▁Shewanella	-11.7781
▁assignment	-11.7781
▁renewable	-11.7781
▁meningitis	-11.7781
Dawley	-11.7781
▁facing	-11.7781
▁eligible	-11.7781
▁bilateral	-11.7782
▁agree	-11.7782
▁rabbit	-11.7785
fouling	-11.7788
▁attempted	-11.7791
▁Simulat	-11.7791
▁PCN	-11.7791
▁Inhibitory	-11.7792
▁weekly	-11.7792
zz	-11.7794
▁mut	-11.7796
▁stabilizing	-11.7796
▁war	-11.78
NHX	-11.7801
▁MPK	-11.7809
▁sapro	-11.7812
▁Medicine	-11.7815
▁Prevalence	-11.7815
▁prevailing	-11.7815
▁rainbow	-11.7815
▁macronutrient	-11.7816
▁Multidrug	-11.7816
▁ferr	-11.7816
▁vesicle	-11.782
▁droplet	-11.7821
cyanin	-11.7828
pyrene	-11.7833
lethal	-11.7834
▁hyperaccumulat	-11.7837
▁Basin	-11.7838
▁consequent	-11.7838
▁Across	-11.7845
108	-11.7847
▁6.5	-11.7847
threonine	-11.7849
▁Micromonospora	-11.7849
▁Relationship	-11.7849
▁completion	-11.7849
▁ginsenoside	-11.7849
▁lithium	-11.7849
▁truncated	-11.7849
▁outdoor	-11.7849
▁biomolecules	-11.785
▁Desert	-11.785
▁prodrug	-11.7854
▁malic	-11.7858
family	-11.7858
8.5%	-11.7859
radical	-11.7861
▁suffering	-11.7863
5.5%	-11.7864
NAA	-11.7872
▁Simultaneous	-11.7873
▁1,2-	-11.7874
▁eating	-11.7877
▁Hepa	-11.7879
porous	-11.7879
oxyl	-11.7882
▁Cucumber	-11.7884
▁Germination	-11.7884
▁equipment	-11.7884
▁deformation	-11.7884
▁tensile	-11.7884
▁CNS	-11.7884
PAGE	-11.7886
NEAU	-11.7887
▁metrics	-11.7887
▁Gossypium	-11.7888
tactic	-11.7888
▁poliovirus	-11.7889
energy	-11.7893
localization	-11.7895
activating	-11.7895
natural	-11.7895
course	-11.7895
zyme	-11.7896
▁Parasit	-11.7896
ianum	-11.7897
apped	-11.7902
▁resolve	-11.7905
▁MHC	-11.7908
1.2%	-11.7913
▁Measur	-11.7918
▁Particularly	-11.7919
▁attributable	-11.7919
▁computer	-11.7919
▁irreversible	-11.7919
▁obstacle	-11.7919
▁orchestrate	-11.7919
▁rhamnosus	-11.7919
▁streptomycin	-11.7919
▁accident	-11.7919
▁sorbent	-11.7919
phytodieno	-11.792
▁delineate	-11.792
▁Significantly	-11.7922
rRNA	-11.7923
antha	-11.7923
▁Like	-11.7925
COD	-11.7933
▁3.7	-11.7948
▁upland	-11.7948
▁taxon	-11.7953
▁Challenge	-11.7953
▁Himalaya	-11.7953
▁Monitoring	-11.7953
▁clarified	-11.7953
▁intriguing	-11.7953
▁rabies	-11.7953
▁allocated	-11.7953
location	-11.7954
▁Taking	-11.7954
▁conceptual	-11.7955
MAP	-11.7955
▁Poland	-11.7957
▁Modulate	-11.7957
▁fill	-11.7958
▁taste	-11.7959
-2018	-11.7963
▁methanotroph	-11.7965
arcino	-11.7973
▁TCP	-11.7975
▁sulfa	-11.7976
▁redundant	-11.798
space	-11.7982
NAD	-11.7983
BCA	-11.7985
▁Twelve	-11.7988
▁package	-11.7988
▁incident	-11.7989
▁monotherapy	-11.799
▁difficulties	-11.7994
▁subspecies	-11.7996
▁corroborated	-11.8004
habitat	-11.8006
▁latex	-11.8011
vivo	-11.8013
▁upregulate	-11.8014
rhizobial	-11.8015
▁threatened	-11.8016
ophyte	-11.802
stimulant	-11.802
acetamide	-11.8023
▁Deferoxamine	-11.8023
▁amylovora	-11.8023
▁colloidal	-11.8023
▁corrosion	-11.8023
▁defensin	-11.8023
▁facility	-11.8023
▁genotyping	-11.8023
▁porosity	-11.8023
▁Kyoto	-11.8023
nicotin	-11.8023
▁pyrosequencing	-11.8023
▁Ecological	-11.8024
▁fitted	-11.8024
▁polystyrene	-11.8025
▁brevi	-11.8026
▁intensively	-11.8027
aniline	-11.8027
▁surprisingly	-11.8029
▁carefully	-11.803
▁Patient	-11.8031
▁glycogen	-11.8031
CAR	-11.8033
▁4.4	-11.8033
▁emphasiz	-11.8036
AMR	-11.8053
CBF	-11.8054
▁flavor	-11.8057
▁Related	-11.8058
prosthetic	-11.8058
▁Kosakonia	-11.8058
▁Trichophyton	-11.8058
lambda	-11.8058
▁pellet	-11.8058
anensis	-11.8059
▁thermotolerance	-11.8059
▁Southeast	-11.806
pyridin	-11.8067
detect	-11.807
▁TIR	-11.8077
▁conifer	-11.8078
blast	-11.8087
immunized	-11.8093
ornithine	-11.8093
▁Prevention	-11.8093
▁cucurbit	-11.8093
▁disposal	-11.8093
▁glutinosa	-11.8093
▁catchment	-11.8093
▁claim	-11.8093
▁cyclase	-11.8093
▁behave	-11.8094
▁trypan	-11.8094
▁ventricular	-11.8094
▁Sixty	-11.8095
PCB	-11.8095
▁realistic	-11.8097
▁12%	-11.8097
▁HLA	-11.8098
wan	-11.8099
▁specialization	-11.8101
nodulation	-11.8106
1.3%	-11.8108
▁2.9	-11.811
▁TOR	-11.811
rank	-11.8115
▁terpenoid	-11.8124
▁holo	-11.8125
▁Bioinformatic	-11.8129
▁DELLA	-11.8129
▁Glucose	-11.8129
▁Tunisia	-11.8129
▁disadvantage	-11.8129
▁imidacloprid	-11.8129
▁laboratories	-11.8129
▁satisfactory	-11.8129
▁fossil	-11.8129
▁walking	-11.8129
▁oxalic	-11.8129
▁aquifer	-11.8129
▁HeLa	-11.8129
▁instability	-11.8129
▁3.4	-11.813
▁QA	-11.8139
ACT	-11.8141
▁(100%)	-11.8143
ridge	-11.8143
limb	-11.816
▁Cupriavidus	-11.8164
▁cathode	-11.8164
▁stochastic	-11.8164
▁violet	-11.8164
▁knee	-11.8164
▁Arabia	-11.8164
▁fulfill	-11.8164
▁intention	-11.8164
0.9%	-11.8166
▁adaption	-11.8166
▁Aedes	-11.8168
Term	-11.8172
▁vessel	-11.8174
▁constituent	-11.8174
metabolite	-11.8177
ammonium	-11.8177
▁biota	-11.8179
▁briefly	-11.8179
▁petal	-11.818
▁confirmation	-11.818
branch	-11.8181
180	-11.8184
homo	-11.8187
125	-11.8191
▁spite	-11.8194
▁mentioned	-11.8194
▁Solid	-11.8197
▁Legionella	-11.82
▁Verrucomicrobia	-11.82
▁allelochemical	-11.82
▁herbivorous	-11.82
▁immense	-11.82
▁nanotubes	-11.82
▁regulon	-11.82
▁multiplication	-11.8202
▁Opti	-11.8202
0.0%	-11.8202
▁classic	-11.8209
▁constrain	-11.8213
pyruvate	-11.8213
relevant	-11.8213
insect	-11.8213
▁dentin	-11.8213
ligand	-11.8213
naph	-11.8232
transformed	-11.8233
▁relat	-11.8235
▁Immunity	-11.8235
▁angustifolia	-11.8235
▁expenditure	-11.8235
▁lindane	-11.8235
▁phytoalexin	-11.8235
▁exhaled	-11.8235
▁sputum	-11.8236
▁duckweed	-11.8236
catenin	-11.8236
▁tripartite	-11.8236
▁ultrastructure	-11.8236
▁EGFR	-11.8236
▁bloodstream	-11.8238
▁foam	-11.824
zia	-11.8243
▁methanolic	-11.8244
hydrolase	-11.8251
▁realized	-11.8254
▁ssp	-11.826
eff	-11.8262
▁twelve	-11.8271
▁eleven	-11.8271
▁Content	-11.8271
▁patens	-11.8271
▁grey	-11.8271
▁thymol	-11.8276
▁Rhizobiales	-11.8277
▁bug	-11.8281
saturated	-11.8282
arginine	-11.8285
colonized	-11.8285
mechanical	-11.8285
PSB	-11.8286
▁Down	-11.8288
ferrioxamine	-11.8307
biodegradability	-11.8307
tocopherol	-11.8307
▁Bayesian	-11.8307
▁Galleria	-11.8307
▁bottleneck	-11.8307
▁cirrhosis	-11.8307
▁conducive	-11.8307
▁ferroptosis	-11.8307
▁collapse	-11.8307
▁conservative	-11.8307
▁evolving	-11.8308
▁residence	-11.8308
▁elite	-11.8314
▁spann	-11.8319
▁COPD	-11.8323
iferous	-11.8325
▁CBF	-11.8332
▁constantly	-11.8333
▁restor	-11.8333
▁Cochrane	-11.8343
▁adjunct	-11.8343
▁displacement	-11.8343
▁reproducibility	-11.8343
microbium	-11.8343
▁vermicompost	-11.8343
▁carrot	-11.8345
▁dysregulation	-11.8345
▁curative	-11.8346
▁kcal	-11.8348
▁Cyclo	-11.8351
▁transiently	-11.8357
defense	-11.8358
▁ERK	-11.8365
▁believe	-11.8366
▁initiat	-11.837
XRD	-11.8372
▁Regulator	-11.8373
cause	-11.8378
▁postulate	-11.8379
▁budget	-11.838
▁doxycycline	-11.838
▁elkanii	-11.838
▁endangered	-11.838
▁fashion	-11.838
▁immersion	-11.838
▁overlooked	-11.838
▁palustris	-11.838
▁microcystin	-11.838
▁pollination	-11.838
SCC	-11.838
▁sensitize	-11.838
▁iturin	-11.838
▁hepatotoxicity	-11.838
▁embol	-11.8381
▁NBS	-11.8382
arabino	-11.8384
▁adoption	-11.8386
▁blind	-11.839
▁nuclei	-11.8392
▁exacerbated	-11.8392
FLA	-11.8396
fused	-11.8397
deficiency	-11.8402
sample	-11.8404
▁flag	-11.8405
proline	-11.8406
dioxin	-11.8409
▁Transcript	-11.8409
nap	-11.841
▁monthly	-11.8411
6.5%	-11.8412
Acetyl	-11.8413
▁underground	-11.8415
▁terbinafine	-11.8416
▁iodine	-11.8416
▁parenchyma	-11.8416
▁bypass	-11.8416
▁vision	-11.8416
Nitro	-11.8417
▁items	-11.8417
▁antimalarial	-11.8418
▁carries	-11.8418
▁HDAC	-11.8419
▁Agro	-11.8419
▁0.005	-11.8424
▁downregulat	-11.8424
▁cAMP	-11.8427
supplemented	-11.8431
transfer	-11.8433
▁3.9	-11.844
▁normalized	-11.8441
▁gradual	-11.8441
room	-11.8444
arious	-11.8448
▁phl	-11.8451
▁diazotrophicus	-11.8451
▁purpurea	-11.8452
▁withdrawal	-11.8452
▁Observ	-11.8452
▁penetrate	-11.8452
▁defining	-11.8453
▁travel	-11.8453
▁Count	-11.8454
▁automatic	-11.8454
▁Bioremediation	-11.8454
▁establishes	-11.846
▁Ven	-11.8475
front	-11.8475
▁Lepto	-11.8475
▁Targeted	-11.8481
▁entomo	-11.8485
▁matching	-11.8486
▁IU	-11.8486
▁Advances	-11.8489
▁Critical	-11.8489
▁caspofungin	-11.8489
▁economy	-11.8489
▁inexpensive	-11.8489
▁symbiovar	-11.8489
▁denatur	-11.8489
▁venous	-11.8489
▁Imaging	-11.849
▁placental	-11.8495
▁mycobacterial	-11.8496
▁7120	-11.8497
▁reconstructed	-11.8502
occurring	-11.8504
▁usefulness	-11.8505
▁implantation	-11.8505
plain	-11.8507
▁isoform	-11.8508
▁regularly	-11.8515
▁SSR	-11.8517
▁retrospectively	-11.8521
oidea	-11.8525
▁35%	-11.8525
▁Decreas	-11.8525
▁February	-11.8526
▁UCYN	-11.8526
▁antibiosis	-11.8526
▁depressive	-11.8526
▁primordia	-11.8526
▁glycosides	-11.8526
▁Excess	-11.8526
▁staff	-11.8526
▁chloroform	-11.8527
▁dorsal	-11.8527
transform	-11.853
8.4%	-11.8532
▁glycosylation	-11.8533
▁mango	-11.8534
▁predatory	-11.8536
prazole	-11.8537
spiro	-11.8537
PDI	-11.854
▁endosymbiont	-11.8542
ivorans	-11.8543
CDPK	-11.8547
▁fouling	-11.8551
▁hatching	-11.8552
▁retro	-11.8553
reliminary	-11.8556
▁Depend	-11.8558
▁aspartate	-11.856
structured	-11.8561
dominated	-11.8562
sparagine	-11.8563
▁cartilage	-11.8563
▁occupied	-11.8563
▁trunk	-11.8563
▁americana	-11.8563
▁harness	-11.8563
▁dispens	-11.8563
▁nearby	-11.8566
▁boron	-11.8567
▁Engineering	-11.8577
Effect	-11.8579
Leu	-11.8588
▁detector	-11.8588
UGT	-11.8591
otoxin	-11.8594
▁Bcl	-11.8594
▁12.5	-11.8596
Pennisetum	-11.86
▁homozygous	-11.86
quadrupole	-11.86
Trp	-11.86
Shigella	-11.86
▁scaling	-11.86
▁mesophyll	-11.86
▁Lysobacter	-11.8601
▁Nuclear	-11.8602
dendron	-11.8603
▁4.3	-11.8603
lived	-11.8604
▁robustness	-11.8607
▁TPH	-11.8613
▁inversely	-11.8616
▁implication	-11.8619
ICAL	-11.862
treat	-11.8621
ette	-11.8622
▁Toxic	-11.8622
effectiveness	-11.8629
▁eliminat	-11.863
▁paint	-11.8634
▁BaP	-11.8635
▁Involvement	-11.8637
▁Medicinal	-11.8637
▁explicit	-11.8637
▁gnotobiotic	-11.8637
▁methacrylate	-11.8637
▁phospholipase	-11.8637
▁surrogate	-11.8637
▁versatility	-11.8637
▁whitefly	-11.8637
▁phylogenomic	-11.8637
▁EROD	-11.8639
▁classify	-11.864
▁Suppression	-11.864
UTR	-11.8643
▁stimulatory	-11.8645
▁Transporter	-11.8647
CeO	-11.8648
▁invaded	-11.8649
▁4.6	-11.865
Rhizobium	-11.8653
▁lent	-11.8654
▁skeleton	-11.8655
▁Change	-11.8656
▁strengthening	-11.866
cyano	-11.8665
▁rosea	-11.8666
95%	-11.8671
▁irregular	-11.8672
calc	-11.8673
▁Gran	-11.8674
Inflammatory	-11.8674
▁stoichiometry	-11.8674
▁vicinity	-11.8674
▁propolis	-11.8674
▁gather	-11.8674
ethoxy	-11.8674
▁Presence	-11.8674
▁gallic	-11.8674
▁Measurement	-11.8674
▁Controlled	-11.8676
Prunus	-11.8676
▁subclass	-11.8678
▁FGF	-11.8679
[...]
